#include "network_data.h"

ai_handle ai_network_data_weights_get(void)
{

  AI_ALIGNED(4)
  static const ai_u8 s_network_weights[ 12152 ] = {
    0x47, 0xac, 0xd5, 0x3c, 0xae, 0xbb, 0xde, 0xbc, 0x7c, 0xc0,
    0xa3, 0xbb, 0xf8, 0x9d, 0xaa, 0x3d, 0x36, 0xa6, 0x62, 0xbd,
    0xdb, 0x6a, 0x14, 0x3d, 0x68, 0xa6, 0x06, 0xbd, 0x4d, 0xab,
    0xcb, 0xbd, 0x9e, 0xa7, 0xa6, 0xbd, 0xa2, 0x12, 0x86, 0xbd,
    0xf7, 0xe1, 0x03, 0x3e, 0x2f, 0x35, 0xd5, 0x3c, 0x1f, 0x03,
    0xe3, 0x3d, 0x5f, 0x4a, 0x68, 0xbd, 0x0b, 0xa1, 0x90, 0xbd,
    0xd6, 0xc1, 0x27, 0x3c, 0x2b, 0x9e, 0x06, 0xbe, 0x56, 0xcd,
    0x94, 0x3d, 0xb1, 0xa0, 0x22, 0x3d, 0x2e, 0xac, 0x5b, 0xbb,
    0x32, 0x03, 0x9b, 0x3d, 0xb7, 0xb6, 0x03, 0xbe, 0xf4, 0x9a,
    0x1a, 0x3d, 0x8f, 0xac, 0xaa, 0xbd, 0x5e, 0xd3, 0x39, 0x3d,
    0x72, 0x90, 0x30, 0xbd, 0xf4, 0x2f, 0x41, 0xbd, 0x1b, 0xa3,
    0x27, 0xbd, 0xad, 0xef, 0x81, 0x3d, 0xd9, 0xb2, 0xc7, 0x3d,
    0xc3, 0x72, 0xa3, 0x3d, 0x87, 0xda, 0x36, 0xbe, 0x11, 0x47,
    0xb4, 0x3c, 0xe2, 0xa0, 0xfe, 0xbd, 0xf4, 0xa0, 0x87, 0x3c,
    0x1b, 0xd1, 0x8a, 0xbd, 0x2c, 0xe7, 0x81, 0x3d, 0xc5, 0xfb,
    0x3f, 0xbe, 0x8b, 0xfe, 0xa6, 0x3d, 0x5e, 0x0d, 0xa2, 0xbd,
    0x8d, 0xec, 0xbc, 0x3d, 0xa0, 0xbd, 0xa8, 0x3c, 0xd4, 0x90,
    0xe1, 0xbc, 0x36, 0x3a, 0x2c, 0xbd, 0x37, 0x20, 0x82, 0x3d,
    0x85, 0x26, 0xec, 0xbd, 0xfd, 0xd9, 0xc2, 0x3b, 0xb0, 0xa7,
    0x1b, 0x3d, 0xfd, 0x02, 0xb0, 0xbd, 0xf5, 0x1d, 0xda, 0xbc,
    0xed, 0x14, 0xb3, 0xbb, 0x2f, 0x69, 0x34, 0x3d, 0xfe, 0xba,
    0x43, 0x3d, 0x2d, 0x01, 0x98, 0x3d, 0x42, 0x84, 0x44, 0x3d,
    0x93, 0xae, 0xe5, 0xbd, 0x66, 0xfe, 0x14, 0xbd, 0xbe, 0x5b,
    0x93, 0x3d, 0x38, 0xc7, 0xc7, 0xbd, 0xc4, 0xd9, 0x00, 0x3c,
    0x5a, 0xc0, 0xb9, 0x3d, 0xd1, 0xd5, 0xcf, 0xbb, 0x99, 0xe7,
    0x1b, 0xbd, 0xd4, 0xde, 0x46, 0x3d, 0x99, 0x79, 0x72, 0xbc,
    0x46, 0xdb, 0x9e, 0x3d, 0x72, 0x62, 0xcf, 0xbd, 0xe6, 0x13,
    0x59, 0x3b, 0x95, 0x7a, 0x1f, 0xbe, 0xa2, 0x50, 0x81, 0x3d,
    0xed, 0x75, 0xa4, 0x3d, 0xee, 0x6d, 0x1e, 0x3d, 0xb0, 0x9a,
    0x2d, 0xbd, 0x85, 0x26, 0x84, 0xbd, 0x60, 0xdc, 0x2d, 0x3d,
    0x6f, 0x1a, 0x13, 0xbe, 0xc4, 0x62, 0x4c, 0xbd, 0xb7, 0xff,
    0xa0, 0xbd, 0x22, 0xad, 0x19, 0x3d, 0xa0, 0xe5, 0x9c, 0xbc,
    0x65, 0x24, 0x90, 0xbd, 0x75, 0x0c, 0x79, 0xbd, 0x5a, 0x8e,
    0xf2, 0xbb, 0x40, 0x04, 0x3e, 0xbc, 0xc7, 0xbb, 0x2d, 0xbe,
    0x2c, 0xc9, 0x16, 0x3d, 0xa9, 0x5e, 0xb2, 0x3d, 0xd2, 0x20,
    0x09, 0xbd, 0x48, 0x1d, 0xd6, 0xbd, 0xf7, 0x5a, 0x82, 0xbd,
    0x3b, 0xcb, 0xda, 0x3d, 0x6c, 0x69, 0x0e, 0x3e, 0x5f, 0xfd,
    0x2c, 0xbe, 0xec, 0x33, 0x4d, 0x3d, 0x9c, 0x61, 0x18, 0xbd,
    0xb8, 0x5e, 0xa3, 0xbd, 0x0d, 0xc5, 0xa2, 0x3c, 0xc1, 0x75,
    0xcb, 0x3b, 0xfd, 0x67, 0x4d, 0x3c, 0xcc, 0x4d, 0x6d, 0xbd,
    0xfd, 0x7a, 0x10, 0xbd, 0xd6, 0xae, 0x25, 0xbc, 0xcd, 0x4c,
    0xc9, 0x3d, 0x8c, 0xb6, 0x87, 0x3d, 0x63, 0xdf, 0xf3, 0xbd,
    0xa6, 0xea, 0xd4, 0xbd, 0x80, 0x49, 0x13, 0x3e, 0xdf, 0x9a,
    0x90, 0xbd, 0x2e, 0xad, 0x07, 0xbe, 0xcc, 0x88, 0x96, 0xbd,
    0xa4, 0x7b, 0xfb, 0x3d, 0x34, 0xc9, 0xfc, 0xbd, 0x67, 0x90,
    0xba, 0xbd, 0x47, 0xd9, 0x75, 0xbd, 0x2b, 0x81, 0xe4, 0xbc,
    0xe6, 0xca, 0xb5, 0xbc, 0x30, 0xfa, 0xc4, 0xbd, 0xe0, 0xef,
    0xd1, 0xbc, 0xa9, 0x56, 0x0b, 0x3e, 0xe5, 0xb4, 0x83, 0x3d,
    0x86, 0x07, 0x7f, 0x3d, 0x25, 0xa9, 0x25, 0xbd, 0x81, 0xee,
    0xae, 0xbd, 0xf6, 0x32, 0xcb, 0xbc, 0xa4, 0xda, 0xe3, 0xbc,
    0x00, 0x62, 0x81, 0xbd, 0x55, 0xdf, 0x43, 0xbc, 0x1d, 0x05,
    0x8f, 0xbc, 0x6d, 0x41, 0xf1, 0xbc, 0x68, 0xe2, 0xc3, 0x3d,
    0x08, 0xee, 0x60, 0xbc, 0x5b, 0x4b, 0xf0, 0xbd, 0xe6, 0x03,
    0x8d, 0xbd, 0x90, 0x88, 0x9b, 0x3d, 0x8a, 0x95, 0x4d, 0xbc,
    0x98, 0xa3, 0x58, 0x3d, 0x2f, 0x16, 0xbf, 0x3d, 0x1f, 0x70,
    0xbc, 0xbc, 0xe8, 0xc8, 0xad, 0xbd, 0xb5, 0x16, 0x3d, 0xbd,
    0xae, 0xf2, 0xae, 0x3d, 0xdc, 0xd4, 0x13, 0x3d, 0xdb, 0x03,
    0xaa, 0xbd, 0x66, 0x7b, 0x21, 0x3d, 0xb7, 0xb1, 0xd7, 0x3c,
    0xd8, 0xe0, 0x2a, 0x3d, 0xc7, 0xc2, 0xa4, 0xbd, 0x4b, 0x83,
    0xd2, 0x3c, 0x39, 0xdc, 0x99, 0x3b, 0xa8, 0x63, 0xed, 0x3c,
    0xc7, 0x69, 0x20, 0x3d, 0x16, 0xb8, 0x41, 0xbd, 0xad, 0x07,
    0xec, 0xbb, 0xfe, 0x1c, 0x60, 0x3d, 0x9e, 0xc0, 0x8b, 0xbb,
    0x05, 0x90, 0x58, 0x3c, 0x59, 0xf3, 0x52, 0x3c, 0xff, 0x19,
    0xaf, 0xbd, 0x66, 0x44, 0xbf, 0x3d, 0x5b, 0xfb, 0x01, 0xbd,
    0x65, 0x71, 0x3a, 0xbd, 0x60, 0x2d, 0xbe, 0xbd, 0x37, 0x6c,
    0xec, 0xbd, 0x17, 0xee, 0xf9, 0x3d, 0xfa, 0x87, 0x1a, 0xbd,
    0x9c, 0x11, 0xee, 0x3c, 0x41, 0xf1, 0xa3, 0xbd, 0x6a, 0x35,
    0x8b, 0xbc, 0x6f, 0xca, 0x91, 0xbd, 0xdd, 0x22, 0x1c, 0x3e,
    0xca, 0x02, 0xbe, 0x3d, 0x67, 0xf1, 0xfe, 0xbd, 0x14, 0xbd,
    0xa3, 0x3c, 0x29, 0xa1, 0xd8, 0x3c, 0x2b, 0xb1, 0xba, 0xbd,
    0xe8, 0xd4, 0x1c, 0xbd, 0x98, 0xa9, 0xd1, 0x3c, 0x38, 0x04,
    0xd9, 0xbd, 0x9e, 0x93, 0x04, 0x3d, 0x9d, 0xf5, 0xb3, 0xbd,
    0xc4, 0x8b, 0x18, 0x3e, 0xfa, 0xe1, 0x25, 0xbd, 0xac, 0x30,
    0xb2, 0xbd, 0xd1, 0x37, 0xa4, 0xbd, 0xda, 0x83, 0xa6, 0xbc,
    0x9d, 0x80, 0x5b, 0x3c, 0xb7, 0x19, 0xcf, 0x3d, 0x67, 0x2a,
    0xa2, 0x3c, 0x6d, 0xef, 0x58, 0xbd, 0xa7, 0x05, 0x9b, 0x3b,
    0x4e, 0x3c, 0xb8, 0x3d, 0x76, 0x0b, 0x20, 0xbd, 0xb5, 0xa3,
    0x40, 0x3d, 0x70, 0x89, 0x7d, 0xbb, 0x55, 0xaa, 0xdf, 0xbd,
    0xd2, 0x29, 0x86, 0xbd, 0x76, 0xb1, 0xbe, 0x3d, 0x62, 0x12,
    0x35, 0x3d, 0xc1, 0x77, 0x1b, 0xbe, 0xcb, 0x9a, 0x3b, 0x3d,
    0x78, 0x08, 0x02, 0x3c, 0xdc, 0xa3, 0x9d, 0xbc, 0xec, 0x3a,
    0xc6, 0x3b, 0xc7, 0x6f, 0x07, 0x3d, 0x0a, 0x42, 0x34, 0xbc,
    0xf1, 0x65, 0x0e, 0x3c, 0xef, 0xc0, 0xfd, 0x3b, 0x54, 0x45,
    0x26, 0x3b, 0xc7, 0xc2, 0xd1, 0x3c, 0xaa, 0xfb, 0xb6, 0xbd,
    0xe2, 0x36, 0x5b, 0x3c, 0xe3, 0xb3, 0xce, 0x3d, 0xb6, 0x16,
    0x89, 0xbd, 0x3d, 0x58, 0x86, 0x3d, 0x04, 0xc5, 0x6a, 0xbc,
    0xd1, 0xbc, 0x1f, 0xbe, 0x2f, 0x62, 0x9b, 0x3d, 0xd9, 0xd7,
    0xb4, 0x3d, 0xca, 0x6e, 0xd8, 0xbd, 0xc5, 0x78, 0x2c, 0x3d,
    0xba, 0x37, 0xb5, 0xbd, 0x1a, 0xd2, 0x18, 0x3d, 0xb6, 0x76,
    0x46, 0x3d, 0xdc, 0xad, 0x8b, 0xbd, 0x94, 0xb8, 0xfb, 0x37,
    0x67, 0x65, 0x27, 0x3d, 0xfd, 0xcf, 0xe1, 0x3c, 0x1f, 0xfe,
    0x94, 0xbd, 0xd8, 0x0e, 0x3a, 0x3d, 0xda, 0x1e, 0xe2, 0x3d,
    0xd2, 0xc7, 0xcd, 0xbc, 0xac, 0x79, 0x0f, 0x3d, 0xa8, 0x5c,
    0x40, 0xbd, 0xd2, 0xc9, 0xe7, 0xbc, 0x58, 0x80, 0xbe, 0xbd,
    0x28, 0xac, 0x61, 0x3d, 0x6c, 0x37, 0xa6, 0x3b, 0x4f, 0xc8,
    0x09, 0xbd, 0x22, 0x13, 0x28, 0xbd, 0x7c, 0x32, 0xb0, 0x3d,
    0x50, 0x51, 0x85, 0x3d, 0xf4, 0x00, 0x69, 0xbd, 0x22, 0x1b,
    0xf0, 0x3c, 0xfb, 0x99, 0x29, 0x3d, 0x17, 0x86, 0x75, 0xbc,
    0xbf, 0x2b, 0xa1, 0xbb, 0xbc, 0xa8, 0x13, 0x3c, 0x85, 0xf1,
    0x9f, 0xbd, 0xeb, 0x76, 0xac, 0xbd, 0xcb, 0xba, 0x9c, 0xbb,
    0xa5, 0xc4, 0xb1, 0x3d, 0x3f, 0x5d, 0xca, 0xbd, 0x80, 0x1e,
    0x4e, 0x3d, 0xbf, 0x9e, 0x9b, 0xbd, 0x4f, 0x7f, 0xa6, 0x3d,
    0x09, 0x1b, 0x0b, 0x3d, 0x1c, 0x30, 0xb3, 0x3a, 0x56, 0x5b,
    0xe1, 0xbd, 0x60, 0x1f, 0xe6, 0x3c, 0xb1, 0xa2, 0xe4, 0x3d,
    0xc7, 0x5e, 0x7f, 0x3d, 0x20, 0x60, 0xe9, 0xbd, 0x9f, 0x9d,
    0x99, 0x3c, 0x10, 0x8a, 0xa7, 0x3c, 0xff, 0x74, 0x01, 0x3d,
    0xf8, 0x8f, 0xc5, 0xbd, 0x37, 0x48, 0xd6, 0xbc, 0xdc, 0xdc,
    0xac, 0xbd, 0xd6, 0x1b, 0xbe, 0xbc, 0x4d, 0xe3, 0xc1, 0xbd,
    0x33, 0xdf, 0xf7, 0xbc, 0xe3, 0x32, 0x40, 0x3d, 0xcf, 0x15,
    0xd4, 0x3d, 0x48, 0x59, 0xc7, 0xbd, 0x7e, 0x40, 0x88, 0xbd,
    0x6d, 0xa0, 0x08, 0xbd, 0xe4, 0xc3, 0x8c, 0x3d, 0xc0, 0xfe,
    0x39, 0x3d, 0xb1, 0x3c, 0xed, 0xba, 0x78, 0xdc, 0x59, 0x3d,
    0x27, 0xd0, 0xbe, 0xbd, 0x1e, 0x84, 0x1c, 0x3d, 0xb7, 0x73,
    0x98, 0x3d, 0x51, 0x75, 0xef, 0xbd, 0x26, 0x4d, 0x91, 0xbc,
    0xf3, 0x09, 0xf2, 0x3c, 0xf8, 0xe2, 0x67, 0x3d, 0x39, 0x03,
    0xd3, 0xbd, 0x32, 0x4e, 0x8f, 0xbd, 0x60, 0xfc, 0x17, 0x3d,
    0x67, 0x5a, 0x87, 0xbd, 0x0e, 0x1c, 0xa2, 0xbc, 0x28, 0x32,
    0x6e, 0x3d, 0xbc, 0x11, 0xc3, 0xbc, 0x17, 0x17, 0x48, 0xbd,
    0x0f, 0x90, 0x36, 0xbd, 0xe7, 0x64, 0xbd, 0xbc, 0xf5, 0x85,
    0x0c, 0xbd, 0x5c, 0x40, 0x0e, 0x3e, 0x17, 0xe7, 0xab, 0xbd,
    0xee, 0xb9, 0x66, 0xbd, 0x20, 0xea, 0xa6, 0x3c, 0x47, 0x91,
    0x96, 0x3d, 0xd1, 0x23, 0x5b, 0xbd, 0x7b, 0xdb, 0xef, 0xbb,
    0xd9, 0x32, 0xd6, 0xbd, 0x08, 0xf4, 0x7a, 0xbd, 0x42, 0xee,
    0x00, 0x3e, 0x52, 0xfe, 0xbe, 0x3d, 0x98, 0xac, 0xa8, 0xbd,
    0x29, 0xae, 0x68, 0xbd, 0x87, 0x4a, 0x5e, 0xbb, 0x19, 0x21,
    0x94, 0xbd, 0x8b, 0x50, 0x7f, 0xbb, 0xd2, 0xca, 0x20, 0x3d,
    0xf5, 0x72, 0x99, 0x3c, 0xcd, 0x55, 0x46, 0x3d, 0x93, 0x04,
    0x0e, 0x3b, 0x1a, 0x82, 0x70, 0xbd, 0x23, 0xe4, 0x81, 0xbd,
    0x4d, 0x45, 0xa1, 0xbd, 0x94, 0x1d, 0x04, 0x3e, 0x6d, 0x9b,
    0xfc, 0x3a, 0xe7, 0xf4, 0xf4, 0xbd, 0x02, 0xea, 0x4d, 0x3d,
    0xc5, 0xcd, 0x6a, 0x3d, 0x8d, 0xfa, 0x66, 0xbc, 0xca, 0x48,
    0xc7, 0x3c, 0xad, 0xcb, 0xde, 0xbc, 0xe6, 0x16, 0xcd, 0x3d,
    0x61, 0xb8, 0xc9, 0x3c, 0x36, 0x54, 0x08, 0xbe, 0x4e, 0xb6,
    0xf5, 0x3c, 0x8b, 0xb0, 0x67, 0xbd, 0x15, 0x2b, 0xd4, 0x3d,
    0x57, 0x36, 0xc6, 0xbd, 0xb7, 0x14, 0x29, 0x3d, 0xae, 0x8c,
    0x8b, 0xbb, 0xee, 0x46, 0x9b, 0x3d, 0xbb, 0x93, 0x96, 0xbd,
    0xa8, 0x58, 0x13, 0x3d, 0x13, 0x9c, 0x82, 0x3c, 0xbf, 0x37,
    0x20, 0xbe, 0x60, 0x15, 0x30, 0xbd, 0x7c, 0x85, 0x92, 0xbc,
    0x17, 0x4f, 0x7d, 0xbc, 0x19, 0x6b, 0x33, 0x3d, 0xac, 0x83,
    0xd0, 0xbd, 0xc6, 0xf0, 0xae, 0x3d, 0x24, 0xfa, 0xd2, 0x3d,
    0x32, 0x09, 0xea, 0xbd, 0x28, 0x91, 0x26, 0xbd, 0x5a, 0xf7,
    0x31, 0x3d, 0x18, 0xac, 0xea, 0x3d, 0x3a, 0x0c, 0xb8, 0xbd,
    0xcc, 0xb0, 0x25, 0xbd, 0xfb, 0x2e, 0xa9, 0x3d, 0xe7, 0xe3,
    0x48, 0xbc, 0x97, 0x5b, 0xe9, 0xbc, 0xa2, 0xaa, 0x9a, 0xbd,
    0x6d, 0x8f, 0x9f, 0x3d, 0x5f, 0x20, 0x94, 0xbd, 0xbc, 0x20,
    0x56, 0xbd, 0x76, 0x0d, 0xcb, 0xba, 0x4b, 0x9e, 0xef, 0xbc,
    0xe4, 0xd1, 0xae, 0xbc, 0x0d, 0x59, 0x40, 0xbd, 0xb3, 0x19,
    0xad, 0xbc, 0xbf, 0x99, 0xb8, 0x3c, 0xf0, 0x63, 0x07, 0xbd,
    0x34, 0x2f, 0x58, 0x3d, 0x1c, 0x8d, 0xda, 0xbd, 0x7c, 0x22,
    0x0e, 0xbb, 0x36, 0x21, 0xa6, 0xbd, 0xc4, 0x9a, 0x94, 0x3d,
    0x73, 0xcd, 0x5b, 0xbd, 0x28, 0x62, 0x41, 0x3d, 0xc8, 0x5f,
    0xad, 0x3d, 0xd7, 0x38, 0xc0, 0x3c, 0xad, 0x83, 0x91, 0x3c,
    0xa0, 0x5d, 0x2a, 0xbd, 0x35, 0xe3, 0x3c, 0x3c, 0xe1, 0xe9,
    0xd8, 0xbd, 0x1c, 0xdf, 0x5b, 0xbd, 0x0c, 0x3b, 0x49, 0x3f,
    0x3d, 0x19, 0x20, 0x3f, 0x39, 0x8a, 0xb8, 0xbe, 0xfc, 0x57,
    0xe9, 0x3d, 0x71, 0x22, 0xcb, 0x3f, 0x1d, 0x2c, 0x30, 0xbf,
    0xf3, 0xf2, 0xdd, 0xbe, 0x98, 0xbf, 0xfb, 0xbe, 0x64, 0xcc,
    0x20, 0xc0, 0xb4, 0x6f, 0xde, 0x3d, 0x84, 0xe8, 0xdf, 0x3f,
    0x52, 0xeb, 0x11, 0xbc, 0x90, 0x66, 0x11, 0xc0, 0x26, 0x83,
    0xf5, 0xbf, 0xfd, 0xcf, 0x49, 0x3d, 0xc2, 0xa1, 0xb2, 0xbe,
    0x50, 0xab, 0xd1, 0xbf, 0xfb, 0xc4, 0xe1, 0xbc, 0xea, 0xef,
    0x00, 0xc0, 0x8e, 0x49, 0x87, 0x3f, 0xe7, 0x40, 0x0f, 0xc0,
    0x1f, 0xfd, 0x68, 0x3d, 0x00, 0xbd, 0x7d, 0x3f, 0x89, 0xca,
    0x76, 0x3f, 0x95, 0x4f, 0x0e, 0xbe, 0x46, 0xe2, 0x9f, 0x3d,
    0x95, 0x25, 0xe9, 0x3d, 0x07, 0x06, 0x2f, 0x3e, 0x92, 0x7a,
    0x30, 0xbe, 0xf4, 0xa7, 0x0d, 0xba, 0x96, 0x53, 0x86, 0xbd,
    0xec, 0x6a, 0x2a, 0x3e, 0xf9, 0x08, 0x39, 0xbe, 0xc7, 0x20,
    0x72, 0x3e, 0xf0, 0xc6, 0xbb, 0xbc, 0x3b, 0xa6, 0x98, 0xbd,
    0x02, 0x16, 0x4b, 0xbe, 0x87, 0x2e, 0x3a, 0x3d, 0x5f, 0x94,
    0xe6, 0x3c, 0x78, 0x82, 0x21, 0x3e, 0x15, 0x52, 0x50, 0xbd,
    0xf9, 0x19, 0xf2, 0x3d, 0x03, 0xf5, 0x16, 0x3c, 0x12, 0x55,
    0x84, 0xbe, 0x56, 0xc0, 0x90, 0xbd, 0x19, 0x39, 0xce, 0x3d,
    0xbe, 0x11, 0x80, 0x3d, 0x9a, 0x92, 0xd4, 0x3c, 0xee, 0xa1,
    0xa8, 0x3d, 0xd0, 0xf6, 0x45, 0x3c, 0x61, 0xcd, 0xf9, 0xbc,
    0xf7, 0xf0, 0x34, 0x3e, 0x06, 0xbf, 0x16, 0xbe, 0x73, 0x5a,
    0xd5, 0xbd, 0x90, 0xa1, 0xd5, 0x3d, 0xa1, 0xdc, 0x34, 0x3e,
    0x7e, 0x11, 0x34, 0xbe, 0xcb, 0xca, 0x46, 0x3d, 0x46, 0x2a,
    0xe4, 0xbd, 0xf2, 0x1d, 0x4b, 0x3d, 0x7d, 0x68, 0x53, 0xbe,
    0x92, 0xba, 0x42, 0x3d, 0xa3, 0xe8, 0xad, 0xbd, 0xee, 0xf0,
    0x89, 0xbd, 0x92, 0x60, 0x29, 0xbe, 0x48, 0xd5, 0x1e, 0x3e,
    0x17, 0x73, 0xdd, 0xbd, 0xce, 0xbc, 0xd6, 0xbd, 0xa2, 0x6b,
    0x27, 0xbe, 0x80, 0xbb, 0x1a, 0x3e, 0x4b, 0x27, 0x2b, 0xbc,
    0xb2, 0x33, 0xfa, 0xbc, 0x82, 0x24, 0x02, 0x3e, 0xb4, 0xe0,
    0x83, 0x3e, 0x2d, 0x49, 0x54, 0xbd, 0x54, 0x55, 0x81, 0xbd,
    0x1c, 0xdb, 0x82, 0x3d, 0x62, 0xdc, 0x02, 0xbe, 0x05, 0x0c,
    0xb7, 0xbd, 0xb5, 0xf1, 0xaf, 0x3d, 0xea, 0x1e, 0x7f, 0xbc,
    0x35, 0x7c, 0x7e, 0x3d, 0xcc, 0x9c, 0xb3, 0x3d, 0x57, 0x95,
    0x0b, 0x3d, 0x8f, 0xb7, 0xa1, 0xbd, 0x08, 0xd3, 0x40, 0xbd,
    0xdb, 0x07, 0x2c, 0xbd, 0x86, 0xf9, 0x95, 0x3d, 0x7a, 0x82,
    0x74, 0xbd, 0xd0, 0xa0, 0x5d, 0xbd, 0x8b, 0x94, 0x3b, 0xbe,
    0xb9, 0x57, 0x4d, 0x3d, 0xb6, 0xb1, 0xfd, 0xba, 0x50, 0xaa,
    0x9e, 0xbd, 0x2b, 0x18, 0xc4, 0x3c, 0xd2, 0xd7, 0xf0, 0x3c,
    0x6a, 0x97, 0xfc, 0xbd, 0xe2, 0xa0, 0x35, 0xbe, 0x27, 0xda,
    0x6d, 0x3d, 0x0a, 0xc8, 0x5e, 0xbb, 0x1b, 0xf4, 0xba, 0xbd,
    0xff, 0xbd, 0x83, 0x3c, 0xb8, 0x7d, 0x49, 0xbd, 0xd6, 0xb3,
    0x0f, 0x3e, 0x53, 0xfc, 0x71, 0xbe, 0x10, 0x8b, 0xc4, 0x3d,
    0x7a, 0x02, 0x18, 0xbe, 0x77, 0xb6, 0x49, 0x3d, 0x9f, 0x2e,
    0x2b, 0xbd, 0x2d, 0xc8, 0x10, 0xbe, 0x41, 0x59, 0x8e, 0xbd,
    0x8a, 0x19, 0x8c, 0x3d, 0x1a, 0xe7, 0x3a, 0x3d, 0x25, 0x36,
    0x61, 0xbd, 0x64, 0x5d, 0xb4, 0x3c, 0x32, 0xcf, 0x89, 0x3c,
    0xb0, 0xf2, 0xaf, 0xbe, 0xcc, 0xb3, 0x8a, 0xbb, 0xe6, 0xa8,
    0xe3, 0xbd, 0x7d, 0x3d, 0x9d, 0x3d, 0x61, 0x47, 0xa9, 0x3c,
    0xea, 0x1f, 0xdd, 0x3d, 0xfe, 0x69, 0x34, 0x3e, 0x4b, 0x43,
    0x99, 0xbd, 0x66, 0xfd, 0xbb, 0xbd, 0xa1, 0xc4, 0xd5, 0x3d,
    0x24, 0x69, 0x77, 0xbd, 0x57, 0xda, 0x2c, 0x3e, 0x50, 0xd0,
    0xe4, 0xbd, 0x54, 0x83, 0x7d, 0x3d, 0xe5, 0x5a, 0xfd, 0xbc,
    0x01, 0x9d, 0xa3, 0x3d, 0xd9, 0x83, 0xe5, 0xbd, 0x90, 0x3a,
    0x3b, 0xbd, 0x58, 0x5f, 0xcf, 0x3d, 0xd1, 0x08, 0x63, 0xbe,
    0x69, 0x6e, 0x82, 0x3d, 0x64, 0x86, 0xee, 0xbd, 0xcc, 0xc7,
    0xac, 0xbd, 0x29, 0x46, 0xb0, 0x3d, 0x95, 0xba, 0x1b, 0xbe,
    0xe9, 0xfb, 0xff, 0x3d, 0xc7, 0x2b, 0x0a, 0xbd, 0xe2, 0x86,
    0xfb, 0xba, 0x56, 0x70, 0xa0, 0xbd, 0xc5, 0x87, 0x15, 0x3e,
    0x06, 0x6c, 0xc7, 0x3c, 0x09, 0xae, 0xf8, 0x3d, 0xa1, 0xcf,
    0x87, 0x3d, 0x41, 0x07, 0xbf, 0xbd, 0x5a, 0x14, 0x41, 0xbd,
    0xa3, 0x73, 0x86, 0x3d, 0x17, 0xe4, 0x82, 0xbd, 0xac, 0xe8,
    0x0d, 0xbd, 0xf1, 0xe0, 0x7c, 0x3e, 0x81, 0x9b, 0x7c, 0x3b,
    0xa6, 0xe9, 0x86, 0x3d, 0x46, 0x13, 0xd8, 0x3d, 0x7a, 0xb2,
    0xcc, 0x3d, 0x7f, 0xff, 0x31, 0xbe, 0x25, 0x4b, 0xd5, 0x3c,
    0x0d, 0xc6, 0x88, 0xbd, 0x10, 0x31, 0x08, 0xbe, 0xca, 0xcf,
    0xc2, 0x3d, 0x85, 0xfa, 0x50, 0x3d, 0x52, 0x6d, 0xea, 0xbd,
    0xc6, 0x8f, 0x17, 0x3e, 0x15, 0x68, 0xe9, 0x3d, 0x63, 0x5a,
    0x07, 0x3d, 0xe4, 0x2e, 0xbc, 0x3d, 0xed, 0x3c, 0x17, 0x3d,
    0xc7, 0x31, 0x4f, 0x3e, 0x2f, 0x8e, 0x43, 0xbc, 0x8f, 0x98,
    0x21, 0x3d, 0xdf, 0x9f, 0x86, 0x3d, 0xd8, 0x66, 0xa2, 0xbd,
    0x87, 0xe9, 0x89, 0xbe, 0xa3, 0x8d, 0x2f, 0x3d, 0x98, 0x69,
    0x85, 0x3d, 0x86, 0x62, 0xdc, 0xba, 0x85, 0x1f, 0xa0, 0xba,
    0xb8, 0x94, 0xb1, 0xbd, 0x7e, 0x61, 0x1c, 0x3e, 0x5f, 0x75,
    0x54, 0x3e, 0xe3, 0x48, 0x29, 0x3d, 0xca, 0x50, 0x0a, 0x3d,
    0xf8, 0xd5, 0x86, 0x3c, 0xbb, 0x1a, 0x1c, 0xbe, 0x88, 0x63,
    0x0a, 0x3e, 0x9c, 0x4a, 0x95, 0xbd, 0x40, 0x67, 0x03, 0xbd,
    0x3a, 0x22, 0x49, 0x3e, 0x3b, 0xaa, 0x05, 0x3e, 0x83, 0xf8,
    0xb5, 0xbc, 0x69, 0xa6, 0xfd, 0xbd, 0x78, 0x1c, 0xad, 0x3d,
    0xd9, 0x70, 0x51, 0x3c, 0x0c, 0x83, 0xc9, 0xbc, 0xea, 0x74,
    0xf9, 0x3c, 0x42, 0x7d, 0x17, 0xbd, 0x02, 0xd4, 0xb6, 0xbe,
    0x50, 0x59, 0x36, 0xbd, 0xd9, 0xfc, 0xc8, 0x3a, 0xdf, 0x8c,
    0x91, 0x3d, 0xd4, 0x08, 0x1a, 0x3d, 0x42, 0x7c, 0x06, 0xbe,
    0x07, 0x2c, 0xf3, 0xbd, 0x34, 0x79, 0x6e, 0x3c, 0x3a, 0x8f,
    0x0f, 0xbe, 0xca, 0x8e, 0x8a, 0x3c, 0x0f, 0x25, 0x36, 0xbd,
    0x99, 0x55, 0xb5, 0x3d, 0x4a, 0x67, 0x65, 0x3d, 0xa2, 0xab,
    0x27, 0x3e, 0x15, 0xa6, 0xeb, 0x3d, 0xe2, 0x7e, 0x8c, 0xbd,
    0xb0, 0xc6, 0xe8, 0x3d, 0x5f, 0xb8, 0x7b, 0x3d, 0x24, 0x21,
    0x84, 0x3d, 0xb8, 0x63, 0x9f, 0xbd, 0x19, 0xff, 0x5c, 0x3c,
    0x65, 0x40, 0xd4, 0xbd, 0x21, 0x3d, 0x0d, 0xbe, 0x9a, 0xab,
    0xd1, 0xbd, 0x3d, 0xc9, 0xb9, 0xbd, 0x31, 0x29, 0x5b, 0xbb,
    0xed, 0xca, 0x34, 0x3d, 0x6c, 0xd7, 0x00, 0xbd, 0xb5, 0x70,
    0x03, 0x3d, 0x4d, 0x54, 0x44, 0xbe, 0xe2, 0x30, 0x45, 0xbd,
    0x2b, 0xf7, 0x1f, 0xbd, 0xba, 0x15, 0x35, 0xbe, 0xee, 0x02,
    0x2c, 0xbd, 0x12, 0x51, 0x0f, 0xbe, 0x37, 0x3b, 0x05, 0xbe,
    0x83, 0xee, 0xb6, 0xbd, 0x90, 0x64, 0xb1, 0x3d, 0x97, 0xb3,
    0xa3, 0xbd, 0x5c, 0x67, 0xf7, 0x3d, 0xd3, 0xab, 0x19, 0x3e,
    0x35, 0x98, 0xf0, 0x3d, 0x86, 0xfd, 0x0d, 0xbe, 0xbc, 0xac,
    0x74, 0xbe, 0x83, 0xa4, 0x83, 0x3d, 0x2d, 0x07, 0xfc, 0xbd,
    0x6c, 0x63, 0xe3, 0x3c, 0x4e, 0x1b, 0x44, 0xbe, 0xc1, 0x1c,
    0xb7, 0x3e, 0xc9, 0xc5, 0x1e, 0xbe, 0xba, 0x7e, 0x3c, 0x3e,
    0x54, 0x27, 0xc8, 0x3c, 0x23, 0x2a, 0x8a, 0x3e, 0xaa, 0xa3,
    0xa2, 0xbc, 0xfa, 0x40, 0x09, 0x3a, 0x73, 0x33, 0x47, 0xbe,
    0x91, 0x64, 0xd3, 0xbc, 0xcb, 0x09, 0xfd, 0xbd, 0x94, 0x3a,
    0x0d, 0xbe, 0xd4, 0x9b, 0x6d, 0x3e, 0x23, 0x2d, 0x02, 0x3e,
    0x8b, 0xa1, 0x91, 0xbd, 0xe9, 0xbc, 0x3a, 0xbc, 0xcb, 0x1c,
    0xf3, 0xbc, 0xad, 0x44, 0xa3, 0xbb, 0xd2, 0x1f, 0x9c, 0xbd,
    0x84, 0x0c, 0xcb, 0xbd, 0x24, 0x36, 0x47, 0xbe, 0x3a, 0x25,
    0x69, 0x3d, 0x49, 0xa7, 0x9b, 0x3d, 0x83, 0x1b, 0x96, 0xbd,
    0xe7, 0x54, 0xe5, 0xbd, 0xe4, 0x9c, 0x2d, 0x3e, 0xd7, 0x2b,
    0xc6, 0x3d, 0x6e, 0x09, 0x9e, 0x3d, 0xb8, 0x32, 0xc9, 0xbd,
    0xae, 0x9c, 0xe0, 0x3d, 0x4b, 0x29, 0x23, 0x3e, 0x50, 0xaf,
    0xe5, 0x3d, 0x17, 0x09, 0xe1, 0x3c, 0xe6, 0xea, 0x5e, 0x3e,
    0x98, 0x78, 0x66, 0xbd, 0xb2, 0x83, 0x2c, 0x3e, 0x4a, 0x4c,
    0x5a, 0x3d, 0x0e, 0x0c, 0x09, 0x3e, 0x0a, 0x23, 0x66, 0x3c,
    0xb2, 0x5e, 0x2e, 0xbd, 0x91, 0x13, 0x33, 0xbc, 0x2a, 0x05,
    0xd3, 0x3c, 0x8c, 0xa6, 0x31, 0xbe, 0x02, 0x88, 0x0b, 0xbd,
    0x67, 0xa5, 0x68, 0x3d, 0xbc, 0x26, 0x32, 0xbd, 0x1f, 0x10,
    0xd1, 0x3d, 0x0a, 0xd5, 0xb6, 0xbd, 0xc5, 0x27, 0xf7, 0xbd,
    0x19, 0x93, 0x8d, 0x3d, 0xd0, 0x3e, 0xe7, 0xbd, 0xc2, 0x1d,
    0xb0, 0xbc, 0xa2, 0x08, 0x70, 0xbd, 0xae, 0xed, 0xe7, 0x3d,
    0xd2, 0xd7, 0x13, 0x3e, 0x14, 0x0f, 0xcc, 0xbb, 0x2b, 0xaf,
    0xd6, 0x3d, 0xe9, 0x9e, 0x4b, 0x3e, 0xe5, 0xe0, 0x1c, 0xbe,
    0x85, 0x09, 0x1d, 0x3e, 0x73, 0xa6, 0x38, 0x3d, 0x16, 0x02,
    0x92, 0xbd, 0xb5, 0x65, 0x39, 0xbe, 0x9b, 0x27, 0xa0, 0xbd,
    0x6d, 0x8a, 0x1e, 0xbe, 0xe5, 0xf0, 0x29, 0x3e, 0x3d, 0x4e,
    0x88, 0xbc, 0xcf, 0xd2, 0x88, 0xbd, 0x97, 0x05, 0x90, 0xbd,
    0xe0, 0xd5, 0xbd, 0x3d, 0x27, 0x5c, 0x93, 0x3c, 0xb7, 0x94,
    0xcd, 0xbd, 0x6f, 0x33, 0xf0, 0xbc, 0xae, 0x7c, 0x8d, 0x3e,
    0x83, 0xcb, 0x5f, 0xbd, 0xb9, 0x1a, 0xea, 0x3d, 0x7e, 0xab,
    0x24, 0xbe, 0x5d, 0x04, 0x09, 0x3b, 0x35, 0x53, 0xa5, 0x3e,
    0x95, 0x26, 0x54, 0xbe, 0xd8, 0xc4, 0x82, 0x3d, 0xe8, 0xb8,
    0xe2, 0xbd, 0x5e, 0xe6, 0x0c, 0xbd, 0xd2, 0x06, 0x1d, 0x3e,
    0xd2, 0xab, 0xd5, 0x3d, 0xa6, 0x40, 0x6a, 0x3e, 0xc8, 0xd3,
    0xe9, 0x3d, 0x00, 0x0a, 0x05, 0xbd, 0xa8, 0x52, 0x2a, 0xbc,
    0x65, 0x62, 0xa5, 0x3d, 0x89, 0xa0, 0x38, 0xbe, 0x1c, 0xf2,
    0xc6, 0xbd, 0x1a, 0x37, 0x12, 0x3d, 0x01, 0xc1, 0xa3, 0x3b,
    0xd8, 0x29, 0x26, 0xbe, 0xc3, 0x81, 0xff, 0x3d, 0xc6, 0x38,
    0x46, 0xbd, 0x46, 0xd4, 0x2b, 0x3d, 0x13, 0xef, 0x09, 0x3e,
    0xa1, 0xea, 0x2f, 0x3e, 0x8e, 0x17, 0x20, 0xbb, 0xf9, 0x5f,
    0xb7, 0x3d, 0xfb, 0xfb, 0x17, 0xbe, 0x5a, 0xcb, 0x1c, 0x3b,
    0xab, 0x14, 0xed, 0x3d, 0xe4, 0xf9, 0x5b, 0xbd, 0x5b, 0x94,
    0x98, 0xbd, 0x00, 0xee, 0x1d, 0x3c, 0x39, 0x84, 0x42, 0x3c,
    0xf3, 0x6e, 0x28, 0x3e, 0xf1, 0x9e, 0x80, 0xbe, 0x2f, 0xde,
    0x96, 0xbc, 0x91, 0x8d, 0x1f, 0x3d, 0xbe, 0x72, 0x80, 0x3d,
    0xa0, 0x23, 0x94, 0xbe, 0x17, 0xf6, 0xb4, 0x3d, 0x1d, 0x14,
    0x9a, 0x3c, 0x64, 0xaa, 0x17, 0xbe, 0xe3, 0xe0, 0xe4, 0xbc,
    0xd7, 0x10, 0xcc, 0x3c, 0xde, 0x4d, 0x95, 0x3d, 0xaf, 0x1c,
    0x48, 0xbd, 0xad, 0x05, 0x81, 0x3d, 0x79, 0x8a, 0xd0, 0xbd,
    0xb7, 0x4a, 0xa4, 0x3a, 0x9a, 0x2a, 0x57, 0x3d, 0x0d, 0xa5,
    0xe3, 0x3d, 0x42, 0xa3, 0x3a, 0xbe, 0xa6, 0x23, 0x1f, 0xbd,
    0x9d, 0xd9, 0x8b, 0xbb, 0xb0, 0x1c, 0x8f, 0x3d, 0x85, 0x2d,
    0x03, 0x3e, 0x2b, 0x99, 0x54, 0x3b, 0x19, 0xef, 0xb5, 0x3c,
    0x1f, 0x7d, 0x1f, 0x3c, 0x35, 0xff, 0x46, 0x3d, 0x1d, 0x68,
    0x5a, 0xbe, 0x18, 0x9f, 0x9d, 0xbb, 0x01, 0x6e, 0x1a, 0x3b,
    0x5d, 0x73, 0xc1, 0x3d, 0x09, 0x25, 0x33, 0xbe, 0x0b, 0x54,
    0xe7, 0xbd, 0x5c, 0x46, 0x39, 0xbd, 0x11, 0x35, 0x9e, 0x3d,
    0xb4, 0x65, 0x11, 0xbd, 0xbe, 0x65, 0x91, 0x3e, 0x65, 0x88,
    0x3b, 0xbd, 0x48, 0x99, 0xa3, 0xbd, 0x8f, 0x57, 0x94, 0xbd,
    0xc7, 0x39, 0x04, 0x3e, 0xf3, 0xe1, 0xfe, 0x3c, 0x74, 0x24,
    0x2a, 0xbe, 0xad, 0x6d, 0x5b, 0xbd, 0x88, 0x09, 0x6c, 0x3d,
    0x10, 0x97, 0x8e, 0xbe, 0x7e, 0x08, 0xf1, 0x3d, 0xaf, 0x3e,
    0x21, 0x3e, 0x3d, 0x3e, 0x9a, 0x3d, 0x2c, 0x39, 0xee, 0x3d,
    0x9d, 0x8d, 0x6b, 0xbd, 0x91, 0x5f, 0x0e, 0xbe, 0x6f, 0x35,
    0xa8, 0xbc, 0xa3, 0xa6, 0xa1, 0xbd, 0x44, 0x9b, 0x1f, 0x3d,
    0xaf, 0x6d, 0x9f, 0x3c, 0x69, 0x60, 0xcd, 0x39, 0x32, 0xa1,
    0x5c, 0x3e, 0x28, 0xa6, 0xad, 0xbd, 0x9f, 0x0c, 0x45, 0xbd,
    0x82, 0x22, 0x54, 0x3e, 0xc2, 0x42, 0x6c, 0xbd, 0x7c, 0xb6,
    0xdd, 0xbc, 0x63, 0xc4, 0x2d, 0xbe, 0xc1, 0x16, 0xc7, 0x3c,
    0xbc, 0xd8, 0xf3, 0xbc, 0xc7, 0xef, 0xef, 0xbd, 0x4f, 0xb0,
    0x27, 0x3e, 0x21, 0x01, 0x01, 0x3e, 0x92, 0xa7, 0xa9, 0xbd,
    0xd1, 0x1e, 0x14, 0x3d, 0x2f, 0xbe, 0x26, 0x3d, 0x54, 0x1a,
    0xed, 0x3d, 0x26, 0x90, 0xaf, 0xbc, 0x8e, 0x89, 0x42, 0xbb,
    0x8f, 0x4b, 0x75, 0xbd, 0xc7, 0x41, 0x2c, 0xbd, 0x85, 0xf0,
    0xb5, 0xbd, 0x50, 0x72, 0xfa, 0x3d, 0x14, 0xeb, 0xc5, 0xbc,
    0xec, 0x7a, 0xe8, 0xbd, 0x7f, 0xdf, 0xfe, 0x3d, 0xb0, 0x35,
    0xf7, 0x3d, 0x37, 0x4a, 0xbc, 0x3c, 0x8d, 0x48, 0xd0, 0x3d,
    0x6c, 0x1f, 0x22, 0x3d, 0x80, 0xf6, 0x1d, 0xbe, 0xd1, 0x55,
    0x55, 0x3d, 0xca, 0x25, 0x6e, 0xbc, 0xb8, 0x72, 0xdc, 0x3d,
    0x32, 0x75, 0x27, 0x3e, 0x21, 0x78, 0x83, 0xbd, 0xe1, 0x77,
    0x4c, 0x3e, 0x83, 0x79, 0x6e, 0x3d, 0x13, 0xcd, 0x8f, 0x3e,
    0x1d, 0xcc, 0x75, 0xbc, 0x7b, 0x69, 0xe3, 0xbc, 0x9b, 0x72,
    0x85, 0xbd, 0xbc, 0x4b, 0xc5, 0xbc, 0x55, 0x96, 0x77, 0x3d,
    0x59, 0xe8, 0xad, 0x3d, 0x4f, 0xf2, 0x2a, 0x3d, 0xd7, 0x58,
    0xfa, 0x3d, 0xfe, 0x11, 0x1a, 0xbd, 0x51, 0x72, 0xbd, 0xbc,
    0x46, 0xa2, 0xf6, 0xbd, 0xd4, 0x30, 0x06, 0xbd, 0x18, 0x5c,
    0x66, 0xbd, 0xa7, 0xbb, 0xa5, 0x3d, 0x4a, 0x61, 0x04, 0xbe,
    0xe2, 0x16, 0xbe, 0x3d, 0xb4, 0xa8, 0xf5, 0xbd, 0xb6, 0x76,
    0x23, 0x3d, 0x20, 0x67, 0x9c, 0x3c, 0x44, 0x9b, 0x0f, 0xbe,
    0xb1, 0xef, 0xd3, 0xbc, 0xe1, 0xc9, 0x4b, 0x3d, 0xe4, 0x2d,
    0xb2, 0xbd, 0x90, 0xfa, 0x77, 0xbc, 0x43, 0xc7, 0xe2, 0x3d,
    0x2d, 0x85, 0x16, 0x3d, 0xe1, 0xca, 0x9d, 0x3d, 0x51, 0x8e,
    0xcf, 0x3c, 0xa9, 0x50, 0xdf, 0x3c, 0x03, 0xe8, 0x87, 0x3d,
    0x57, 0x5f, 0x7e, 0x3d, 0xe3, 0x7f, 0x84, 0xbd, 0xff, 0x68,
    0x9c, 0xbc, 0x45, 0x30, 0x06, 0x3e, 0x86, 0xbb, 0xd6, 0xbd,
    0xc7, 0xf3, 0x44, 0xbd, 0x26, 0xec, 0x81, 0x3d, 0x5f, 0x66,
    0x56, 0xbc, 0x64, 0x87, 0x66, 0xbc, 0x1c, 0xef, 0x42, 0x3e,
    0x47, 0x87, 0x1b, 0xbe, 0x59, 0x0f, 0x17, 0x3e, 0x65, 0xaa,
    0xee, 0x3d, 0x75, 0x5c, 0x28, 0x3c, 0xf4, 0xa6, 0xd4, 0xbc,
    0xec, 0xf6, 0x26, 0xbd, 0x38, 0xe4, 0x50, 0xbd, 0x85, 0x33,
    0x88, 0xbc, 0xa5, 0x9e, 0xc5, 0xbd, 0x1e, 0xb6, 0x19, 0x3d,
    0x80, 0xae, 0x2c, 0x3e, 0x58, 0xc9, 0x5e, 0x3d, 0xb8, 0x8a,
    0x2f, 0x3d, 0xda, 0x52, 0x76, 0xbd, 0x2d, 0x68, 0x29, 0xbe,
    0x45, 0x0a, 0x27, 0x3e, 0xac, 0xfb, 0x6a, 0x3d, 0xf8, 0xa8,
    0xa4, 0xbd, 0x7d, 0xc0, 0x0a, 0x3a, 0x32, 0x47, 0x1a, 0x3e,
    0x60, 0xbc, 0x9e, 0x3d, 0x64, 0xdb, 0xc6, 0x3d, 0x9e, 0xae,
    0xd6, 0x3d, 0xe9, 0x9c, 0x7f, 0x3b, 0xd4, 0xdc, 0x4f, 0x3e,
    0x3c, 0x1e, 0xef, 0xbc, 0x3a, 0x88, 0xb0, 0x3c, 0xf9, 0xbe,
    0x38, 0x3e, 0xa5, 0x13, 0xcc, 0xbc, 0xb5, 0x57, 0xd7, 0x3d,
    0xb3, 0x67, 0xcd, 0xbd, 0x90, 0xf0, 0xb7, 0x3d, 0x86, 0x31,
    0x1f, 0xbe, 0xef, 0x57, 0x24, 0x3c, 0x51, 0x79, 0xb1, 0x3d,
    0x8e, 0x2a, 0x59, 0x3d, 0x33, 0x09, 0x5e, 0xbd, 0xcc, 0xbd,
    0x08, 0xbd, 0xa6, 0x37, 0x19, 0x3e, 0x99, 0xe3, 0x3b, 0xbe,
    0xdc, 0xa8, 0xcc, 0xb9, 0xcf, 0xbb, 0x3a, 0xbd, 0x13, 0xcf,
    0xc8, 0x3c, 0x8b, 0x47, 0xc9, 0x3d, 0x14, 0x90, 0x14, 0x3c,
    0xff, 0x29, 0xd4, 0x3d, 0x8a, 0x82, 0x3d, 0xbe, 0x81, 0x13,
    0xf6, 0x3d, 0x44, 0x1c, 0x2d, 0xbc, 0x91, 0xc7, 0xa7, 0x3c,
    0x52, 0x07, 0x40, 0x3e, 0xd4, 0x6d, 0xf4, 0xbd, 0x26, 0x02,
    0xed, 0xbd, 0x02, 0xaa, 0xa6, 0xbd, 0xbd, 0x92, 0x21, 0x3e,
    0x40, 0xe5, 0x3b, 0x3d, 0xda, 0x8a, 0x99, 0x3d, 0x4d, 0x4c,
    0xf1, 0x3d, 0xb7, 0x74, 0x86, 0x3d, 0x84, 0xe5, 0x9f, 0x3c,
    0xcf, 0x00, 0xff, 0x3d, 0xe3, 0x05, 0x67, 0x3d, 0xf3, 0xad,
    0x31, 0xbe, 0x0b, 0x0b, 0x4e, 0x3d, 0x6f, 0xc2, 0x0b, 0x3e,
    0x11, 0xa5, 0xa1, 0xbd, 0x5b, 0xeb, 0xbd, 0x3c, 0x84, 0x60,
    0xf2, 0x3d, 0x30, 0x41, 0x24, 0xbe, 0x21, 0x41, 0x9d, 0x3d,
    0x89, 0xb7, 0x25, 0xbd, 0x5f, 0x6f, 0x70, 0xbd, 0xe6, 0x74,
    0xb8, 0x3d, 0x72, 0x1b, 0x00, 0x3d, 0x5a, 0x55, 0x30, 0xbd,
    0x9e, 0x43, 0xf8, 0xbb, 0xd0, 0x99, 0x73, 0x3e, 0x59, 0x76,
    0xfe, 0xbd, 0x80, 0x92, 0x5f, 0x3c, 0x7b, 0x8b, 0x3a, 0x3d,
    0xdc, 0x8d, 0x1d, 0x3e, 0xe4, 0x49, 0x8e, 0x3e, 0x51, 0xbd,
    0x1c, 0x3d, 0x81, 0xa2, 0xb7, 0x3d, 0x57, 0x23, 0x74, 0xbd,
    0x38, 0xe3, 0x9f, 0xbd, 0xce, 0xf1, 0xfa, 0xbd, 0x93, 0x67,
    0xfa, 0x3d, 0xf0, 0xf2, 0x93, 0xbd, 0xb4, 0x9c, 0x15, 0xbe,
    0x8d, 0x87, 0xa0, 0x3c, 0x22, 0xac, 0x32, 0x3e, 0x62, 0x06,
    0xbb, 0x3d, 0x99, 0xb8, 0xc7, 0xbd, 0x11, 0x7c, 0xd6, 0xbd,
    0x8d, 0x0f, 0x32, 0xbe, 0xb4, 0x0b, 0x80, 0xbd, 0x3e, 0x6c,
    0x3c, 0xbd, 0xd5, 0x8f, 0x9d, 0xbd, 0x8b, 0xe0, 0xda, 0xbd,
    0xe3, 0x6b, 0x52, 0xbd, 0x83, 0x11, 0xf4, 0xbc, 0x04, 0x93,
    0xdf, 0xbd, 0xc8, 0xe6, 0xad, 0xbd, 0x9a, 0xf5, 0xc6, 0xbd,
    0x24, 0x01, 0xa7, 0x3d, 0x2e, 0x68, 0x63, 0x3d, 0x41, 0x8b,
    0x2c, 0xbd, 0x80, 0xb8, 0xa4, 0xbd, 0x6e, 0xa6, 0x28, 0x3d,
    0x8f, 0x1b, 0x21, 0x3d, 0xc3, 0xfa, 0x7a, 0x3d, 0x62, 0xab,
    0x9e, 0x3c, 0x15, 0x22, 0x2b, 0xbd, 0x0b, 0xca, 0xa7, 0xbd,
    0x8c, 0x1a, 0x0c, 0xbe, 0x56, 0x7e, 0x47, 0xbd, 0xd0, 0xba,
    0x15, 0x3e, 0x3a, 0xef, 0x52, 0xbd, 0x43, 0xaa, 0xae, 0xbd,
    0xaf, 0xff, 0xab, 0x3c, 0xf5, 0xc5, 0x46, 0x3d, 0xe3, 0xd8,
    0x89, 0xbd, 0xcd, 0x35, 0x61, 0xbe, 0xb8, 0x51, 0x6d, 0xbd,
    0x63, 0x04, 0x70, 0xbd, 0xe8, 0x72, 0x2b, 0xbd, 0xc2, 0x6b,
    0x03, 0xbe, 0x6b, 0x7b, 0x2e, 0xbc, 0x5a, 0xfb, 0xd0, 0x3c,
    0x5d, 0xcd, 0x71, 0x3d, 0xf5, 0x5a, 0xcf, 0x3d, 0x7d, 0x28,
    0x7c, 0xbc, 0xd6, 0x42, 0xcb, 0xbd, 0xc4, 0x9f, 0x36, 0x3d,
    0xb3, 0x27, 0xd8, 0xbd, 0xdc, 0xdb, 0x39, 0xbe, 0xd0, 0x2b,
    0xa6, 0xbc, 0x81, 0x9f, 0xc0, 0x3d, 0xa0, 0x3a, 0x22, 0xbd,
    0x06, 0x33, 0xee, 0x3c, 0x6e, 0x2a, 0x77, 0x3e, 0x39, 0x0e,
    0xb4, 0xbc, 0x0e, 0xb7, 0x90, 0x3c, 0x31, 0x65, 0x66, 0x3d,
    0x6f, 0x81, 0xa0, 0x3b, 0xce, 0x2f, 0x9d, 0xbd, 0x97, 0xdb,
    0x9b, 0x3d, 0xa4, 0x6f, 0xb9, 0x3d, 0x27, 0x93, 0xc3, 0x3c,
    0x4d, 0xe6, 0x09, 0xbe, 0xa7, 0x5e, 0xb4, 0x3b, 0x85, 0x10,
    0x28, 0x3d, 0x7c, 0xab, 0x46, 0x3a, 0x1b, 0x18, 0x65, 0xbe,
    0xb7, 0x7d, 0x14, 0x3d, 0x1b, 0xd7, 0x0d, 0xbe, 0x54, 0x83,
    0x90, 0xbc, 0x21, 0xe9, 0x08, 0xbe, 0x34, 0x23, 0xa1, 0xbd,
    0x23, 0x6f, 0xbe, 0x3d, 0x5a, 0x15, 0x4b, 0xbd, 0xc3, 0x35,
    0x8f, 0x3d, 0x2a, 0x79, 0x2b, 0x3e, 0x3e, 0xf6, 0xdf, 0x3d,
    0xf0, 0xb5, 0x9c, 0x3d, 0x41, 0x2e, 0xd4, 0xbb, 0xc9, 0x7d,
    0x0e, 0xbe, 0xff, 0x81, 0x89, 0x3d, 0xe1, 0xe3, 0x7e, 0x3e,
    0xcc, 0xd5, 0x23, 0x3e, 0x21, 0xbb, 0x2d, 0xbb, 0x75, 0xe9,
    0x62, 0x3d, 0x78, 0x38, 0x1b, 0x3e, 0xea, 0x85, 0xc8, 0xbd,
    0x6d, 0x48, 0xcf, 0x3c, 0xc3, 0x05, 0xa2, 0x3d, 0x5f, 0xa4,
    0xcf, 0x3d, 0xf8, 0x07, 0x81, 0xbd, 0x64, 0x44, 0xea, 0xbd,
    0xa3, 0xff, 0x03, 0x3d, 0x61, 0x51, 0xc0, 0xbd, 0xd8, 0x2a,
    0xab, 0xbd, 0x52, 0x22, 0xb3, 0xbd, 0x97, 0x12, 0x9f, 0x3d,
    0xf2, 0x98, 0xf0, 0xbd, 0x7f, 0x1a, 0x95, 0x3d, 0xb4, 0x90,
    0x05, 0x3e, 0xd8, 0x9e, 0x8e, 0xbc, 0x95, 0xf0, 0xb5, 0xbd,
    0x07, 0x29, 0x48, 0x3c, 0xba, 0x20, 0x3d, 0xbc, 0xf9, 0xee,
    0xd6, 0x3d, 0xb9, 0x92, 0x70, 0xbe, 0xa6, 0x19, 0x15, 0x3e,
    0xce, 0x46, 0x0e, 0xbd, 0x36, 0x38, 0xa3, 0x3d, 0x06, 0x83,
    0x1f, 0x3d, 0x53, 0x74, 0xa7, 0x3d, 0xe4, 0x32, 0xa6, 0xbd,
    0x78, 0xf6, 0x5e, 0xbc, 0x0d, 0xbc, 0x23, 0x3d, 0x81, 0x27,
    0xab, 0xbc, 0x86, 0x03, 0x10, 0xbe, 0xbb, 0x1f, 0x44, 0x3b,
    0xeb, 0xc1, 0x73, 0x3c, 0x84, 0xcd, 0x2b, 0xbd, 0xf4, 0xa5,
    0x28, 0x3e, 0xa5, 0xbb, 0x79, 0x3e, 0x5f, 0x3c, 0x8b, 0xbc,
    0x4d, 0x51, 0x52, 0xbd, 0x27, 0xda, 0x4a, 0x3e, 0xb9, 0x68,
    0xff, 0x3c, 0x56, 0xc3, 0x81, 0xbd, 0xd9, 0x38, 0xa6, 0xbd,
    0x61, 0xb4, 0xae, 0xbd, 0x32, 0xee, 0xcc, 0x3d, 0x7b, 0x4d,
    0x3e, 0x3d, 0x44, 0xc9, 0x21, 0xbe, 0xc9, 0x9e, 0x08, 0xbd,
    0xc2, 0xa9, 0x88, 0xbd, 0x18, 0x89, 0x67, 0xbd, 0x39, 0x81,
    0x07, 0xbe, 0xc9, 0xe8, 0xa8, 0x3c, 0x3a, 0xa0, 0xa6, 0x3d,
    0x25, 0x12, 0x26, 0xbe, 0x20, 0x01, 0x8b, 0x3d, 0x2a, 0xfb,
    0x93, 0x3d, 0x50, 0x97, 0x9c, 0xba, 0xfb, 0x01, 0xb7, 0x3d,
    0x23, 0xcb, 0x8e, 0x3d, 0xbf, 0x39, 0xca, 0x3c, 0x83, 0xa3,
    0x11, 0x3d, 0x6f, 0x78, 0xb3, 0xbc, 0x77, 0xae, 0xc1, 0x3d,
    0x7d, 0x67, 0x8d, 0xbd, 0xe5, 0xd1, 0x55, 0xbd, 0x46, 0x78,
    0xc4, 0x3c, 0xf2, 0xf4, 0x35, 0xbd, 0xe5, 0xd1, 0xd7, 0x3d,
    0xac, 0x87, 0xf7, 0xbd, 0x38, 0x15, 0x90, 0x3b, 0x0c, 0x28,
    0x3c, 0xbc, 0x89, 0xdf, 0x7d, 0x3d, 0x2a, 0x42, 0x04, 0xbe,
    0xc5, 0x03, 0x45, 0xbe, 0x4f, 0x9c, 0xcc, 0xbd, 0x6e, 0xc7,
    0x2b, 0xbe, 0x7d, 0xdc, 0xce, 0xbc, 0xec, 0x74, 0x7f, 0xbd,
    0xb8, 0x65, 0x86, 0x3d, 0x27, 0x7e, 0xb7, 0xbd, 0x61, 0x74,
    0x88, 0x3d, 0x4d, 0x1b, 0xb3, 0xbd, 0x92, 0x7c, 0xef, 0xbd,
    0xab, 0xf9, 0xb6, 0x3d, 0x58, 0x46, 0x66, 0x3d, 0x67, 0xba,
    0x21, 0x3d, 0x55, 0xf0, 0xcc, 0x3d, 0x8b, 0x94, 0xa0, 0x3d,
    0x50, 0xbd, 0x2d, 0x3e, 0xc5, 0x1f, 0x91, 0xbd, 0xfa, 0xfb,
    0x1f, 0x3e, 0xd9, 0x45, 0x2f, 0xbe, 0x0b, 0x0f, 0x36, 0x3e,
    0x6f, 0xec, 0x75, 0x3d, 0x9d, 0xae, 0x22, 0xbd, 0x7b, 0x7d,
    0xd2, 0xbd, 0xdc, 0x43, 0xa2, 0x3c, 0xdb, 0xe2, 0xae, 0xbd,
    0x65, 0xf3, 0x38, 0xbb, 0x2f, 0xe4, 0x8b, 0xbd, 0x67, 0x0f,
    0x0a, 0x3c, 0xc1, 0x40, 0xa2, 0x3c, 0xa8, 0x7f, 0x85, 0x3d,
    0xb2, 0x09, 0xa3, 0x3c, 0x7a, 0x61, 0x2a, 0xbe, 0xe5, 0x7e,
    0x0e, 0xbd, 0x65, 0x23, 0xed, 0x3b, 0xc4, 0x5a, 0xa5, 0x3d,
    0x6c, 0x57, 0xb2, 0xbd, 0xe9, 0x6d, 0x7d, 0xbd, 0xa9, 0xca,
    0x24, 0x3b, 0xdc, 0xa2, 0x81, 0xbc, 0x74, 0x79, 0x09, 0x3d,
    0xec, 0x60, 0xc4, 0xbd, 0x3d, 0xe5, 0x7a, 0x3d, 0x71, 0xa8,
    0xc6, 0xbd, 0xf2, 0x2c, 0xd1, 0xbd, 0xb2, 0x53, 0xf2, 0xbd,
    0x89, 0x16, 0x07, 0xbe, 0x0b, 0x31, 0xf6, 0x3c, 0xbe, 0xfb,
    0xcc, 0xbd, 0xa9, 0xbf, 0x5f, 0x3e, 0x88, 0x02, 0x8a, 0x3d,
    0x4f, 0xea, 0xc8, 0xbd, 0x73, 0xcc, 0x88, 0x3d, 0xee, 0xd7,
    0x2f, 0xbe, 0x74, 0x24, 0x97, 0x3d, 0x08, 0xb9, 0x24, 0xbe,
    0xbf, 0x29, 0x64, 0x3d, 0x16, 0x1c, 0x99, 0x3d, 0x31, 0xd3,
    0x1d, 0x3d, 0x0f, 0x5d, 0xb0, 0xbd, 0xfd, 0x76, 0xf2, 0xbd,
    0x06, 0xc5, 0x80, 0x3d, 0x2b, 0x62, 0x4c, 0xbd, 0xf6, 0x93,
    0x9d, 0x3c, 0x18, 0x05, 0x41, 0xbe, 0x99, 0x38, 0x77, 0xbc,
    0x7a, 0x6c, 0x02, 0x3e, 0x64, 0x83, 0x40, 0x3e, 0xdc, 0x98,
    0x09, 0x3e, 0x50, 0x74, 0xa3, 0xbd, 0xf3, 0x69, 0xc1, 0xbd,
    0xdc, 0xea, 0x2f, 0x3d, 0x4f, 0x9a, 0x11, 0xbe, 0x86, 0x3f,
    0xca, 0x3d, 0x53, 0x69, 0xd5, 0x3d, 0x89, 0x37, 0xcb, 0xbd,
    0x8f, 0xac, 0x4c, 0x3e, 0x48, 0xc2, 0xa8, 0xbd, 0x8b, 0x16,
    0x68, 0x3c, 0x83, 0xfc, 0xb7, 0x3d, 0x28, 0x3e, 0xbb, 0xbd,
    0x4f, 0x0d, 0x5a, 0x3d, 0xb8, 0xa1, 0xa6, 0x3d, 0xfe, 0xec,
    0xb0, 0xbc, 0x53, 0xf5, 0xb2, 0xbc, 0xbe, 0x09, 0x1e, 0x3d,
    0x59, 0x67, 0xe2, 0x3d, 0x83, 0x76, 0xc4, 0xbd, 0x38, 0x51,
    0xbc, 0x3d, 0x6d, 0x3a, 0x4f, 0xbe, 0xb7, 0x50, 0x72, 0x3d,
    0x79, 0x07, 0x6b, 0xbc, 0x05, 0x32, 0x65, 0xbd, 0x23, 0xb1,
    0xce, 0x3d, 0x0b, 0x31, 0x8a, 0x3b, 0x3e, 0xeb, 0x86, 0x3b,
    0xcd, 0x87, 0x08, 0xbd, 0x84, 0xb0, 0xa9, 0xbc, 0x66, 0x8e,
    0xd5, 0x3d, 0x59, 0x60, 0xf2, 0xbd, 0xcb, 0xdb, 0x0f, 0xbe,
    0x28, 0xda, 0x82, 0xbd, 0xec, 0xe3, 0x25, 0x3d, 0xeb, 0x4d,
    0x9c, 0xbc, 0x13, 0x53, 0x59, 0x3d, 0xfc, 0x54, 0x5d, 0x3d,
    0x5a, 0x51, 0x12, 0x3d, 0x43, 0xf5, 0xc0, 0x3d, 0x3e, 0x77,
    0x62, 0x3e, 0xa1, 0x4f, 0x03, 0xbe, 0x66, 0x22, 0x2d, 0xbe,
    0x29, 0x07, 0xae, 0x3d, 0x22, 0x15, 0x0f, 0xbd, 0x8f, 0xec,
    0xb8, 0xbd, 0x6b, 0xb8, 0x7e, 0xbd, 0xf5, 0x41, 0x43, 0x3d,
    0x0b, 0xfb, 0x12, 0x3e, 0xab, 0x05, 0x6d, 0xbd, 0x23, 0x39,
    0x1e, 0x3d, 0x96, 0x97, 0xd8, 0x3d, 0x70, 0xa6, 0x35, 0xbe,
    0x37, 0x10, 0xfa, 0xbd, 0x20, 0x17, 0x78, 0x3d, 0xf7, 0xc3,
    0x58, 0xbd, 0x77, 0x79, 0x95, 0x3d, 0x43, 0x80, 0xa4, 0xbc,
    0x7f, 0x8a, 0xc8, 0x3c, 0xa0, 0x39, 0x3f, 0x3e, 0x86, 0xd1,
    0x8a, 0x3d, 0xef, 0x0d, 0x96, 0x3d, 0xdd, 0xb8, 0x80, 0x3d,
    0x65, 0x48, 0xf4, 0x3c, 0x16, 0x43, 0xba, 0xbd, 0x19, 0x10,
    0x90, 0xbd, 0x55, 0x0b, 0x3e, 0xbe, 0x70, 0xf8, 0x63, 0xbd,
    0xc3, 0x38, 0xac, 0x3d, 0xb4, 0x65, 0xd6, 0xbd, 0xe5, 0x49,
    0x0d, 0xbe, 0x82, 0xad, 0x02, 0x3e, 0xbd, 0x71, 0x3b, 0x3d,
    0x9f, 0x55, 0xbd, 0x3c, 0xa1, 0xe8, 0x95, 0x3d, 0xd8, 0x3e,
    0x68, 0x3d, 0x6e, 0x0b, 0x4d, 0xbc, 0x00, 0xdc, 0x11, 0xbe,
    0x18, 0xbf, 0x07, 0xbe, 0x66, 0x5a, 0x87, 0xbb, 0xc0, 0x34,
    0x02, 0xbe, 0x35, 0x69, 0x8e, 0xbc, 0x3f, 0xea, 0x0e, 0x3e,
    0x49, 0x8a, 0xb3, 0xbc, 0x59, 0x93, 0x43, 0x3e, 0x45, 0x56,
    0x92, 0x3d, 0x21, 0x93, 0x87, 0xbd, 0x3e, 0xa7, 0x1b, 0x3d,
    0x35, 0x9f, 0x4f, 0xbe, 0x06, 0xfa, 0x2b, 0x3c, 0x12, 0x76,
    0x18, 0xbd, 0x3e, 0xad, 0x43, 0xbd, 0x10, 0xcc, 0x0e, 0xbe,
    0x1a, 0x8a, 0xd3, 0x3d, 0x8f, 0xc9, 0x8c, 0xbd, 0x4b, 0x6b,
    0xbe, 0x3d, 0xd5, 0xe6, 0xd0, 0x3d, 0x8d, 0xc1, 0xc5, 0x3d,
    0x51, 0x48, 0xd7, 0x3b, 0xe9, 0x69, 0xc9, 0x3d, 0x9a, 0xe2,
    0x36, 0xbe, 0xd6, 0x96, 0x94, 0x3c, 0x2d, 0xc5, 0x65, 0x3d,
    0x83, 0xd7, 0x31, 0x3d, 0x7f, 0xec, 0x41, 0x3e, 0xec, 0xbb,
    0x85, 0x3d, 0x3a, 0xb2, 0x7c, 0x3d, 0x7a, 0xeb, 0x9f, 0xbc,
    0xfd, 0xe2, 0x28, 0x3d, 0xfa, 0xf9, 0x64, 0xbd, 0x61, 0xf3,
    0x9a, 0xbd, 0xcf, 0xa6, 0x77, 0x3d, 0x43, 0xbb, 0x41, 0xbe,
    0xcd, 0x1e, 0x39, 0x3e, 0x98, 0x92, 0xd5, 0xbd, 0x7b, 0x18,
    0x02, 0xbe, 0xbf, 0xcb, 0x28, 0x3d, 0x48, 0x2f, 0x3f, 0x3e,
    0x8f, 0xe6, 0xa5, 0x3c, 0x61, 0xc6, 0xd7, 0x3d, 0x5b, 0xf9,
    0x12, 0xbe, 0xff, 0x4f, 0x18, 0x3e, 0xe7, 0x2d, 0x55, 0x3e,
    0xb8, 0x81, 0xce, 0xbd, 0x7e, 0x9e, 0x4d, 0xbd, 0xd1, 0x52,
    0x24, 0x3e, 0x00, 0x84, 0x79, 0xbe, 0xda, 0xdb, 0x28, 0x3e,
    0x5a, 0xf7, 0x70, 0xbc, 0x68, 0x04, 0x0c, 0xba, 0xf3, 0xdf,
    0xc6, 0x3d, 0x89, 0xbe, 0x12, 0x3c, 0x93, 0xf1, 0x60, 0xbd,
    0x55, 0x95, 0x26, 0xbe, 0x28, 0xa9, 0x57, 0xbe, 0x7f, 0x75,
    0xc2, 0x3a, 0x49, 0x8e, 0xf2, 0xbc, 0x65, 0xab, 0x10, 0xbd,
    0x04, 0x41, 0x47, 0x3e, 0xb1, 0x35, 0xa3, 0xbd, 0x76, 0x82,
    0xde, 0xbc, 0x9d, 0x89, 0xe3, 0xbd, 0x6a, 0xd9, 0xd8, 0xbd,
    0x67, 0x80, 0x34, 0xbe, 0xb8, 0xf9, 0xcf, 0xb9, 0xbb, 0x52,
    0xc1, 0x3d, 0x8c, 0xa3, 0x18, 0x3d, 0x73, 0x39, 0x0a, 0x3e,
    0x9f, 0x4f, 0xb3, 0xbb, 0x33, 0x22, 0x20, 0x3e, 0x42, 0x4a,
    0x81, 0x3d, 0x0e, 0x21, 0x1a, 0x3e, 0x4a, 0x15, 0xaf, 0xba,
    0x56, 0xcc, 0x32, 0x3d, 0x84, 0x8b, 0xe9, 0x3d, 0x5c, 0xb7,
    0x95, 0xbc, 0x9a, 0x91, 0xb0, 0x3d, 0xd3, 0x6b, 0x8f, 0x3d,
    0x95, 0xf8, 0xb0, 0x3d, 0xa4, 0x35, 0x64, 0xbe, 0x53, 0xf8,
    0x03, 0x3c, 0x05, 0x3a, 0xcd, 0xbb, 0x91, 0x27, 0x76, 0xbe,
    0x08, 0xc7, 0x9b, 0xbd, 0x4d, 0xaa, 0x75, 0xbc, 0x77, 0x6d,
    0x9c, 0x3e, 0x92, 0xba, 0x57, 0xbc, 0x8c, 0x2c, 0xde, 0x3b,
    0x83, 0xcf, 0x63, 0x3d, 0xf6, 0x5d, 0xa7, 0x3d, 0x14, 0xaa,
    0xa8, 0x3e, 0x55, 0xcd, 0x0e, 0xbe, 0xe2, 0x81, 0x37, 0xbe,
    0x8f, 0x79, 0x97, 0xbd, 0xbd, 0x86, 0x2f, 0x3d, 0xe0, 0x9c,
    0xff, 0xbd, 0xe6, 0x54, 0xb9, 0x3d, 0xa8, 0x3b, 0x15, 0x3e,
    0x1b, 0xc2, 0x1c, 0xbe, 0x72, 0x39, 0x06, 0x3e, 0xfc, 0xfb,
    0x5f, 0xbd, 0xfa, 0x6a, 0xb2, 0xbc, 0x8a, 0xb4, 0x6e, 0x3c,
    0x53, 0xa1, 0x19, 0xbe, 0x5a, 0x78, 0x10, 0x3e, 0x8a, 0xba,
    0x4f, 0x3d, 0xc6, 0x08, 0x6c, 0xbe, 0x02, 0x14, 0x43, 0x3d,
    0x1b, 0x4f, 0x3c, 0xbd, 0xd9, 0x57, 0x63, 0x3e, 0xc1, 0xae,
    0x89, 0xbd, 0x35, 0xfa, 0xde, 0x3c, 0x30, 0x65, 0x00, 0xbe,
    0xa9, 0x41, 0x4e, 0x3c, 0xa0, 0x76, 0x2f, 0xbe, 0xfb, 0xa3,
    0x5a, 0xbd, 0x91, 0x8f, 0xad, 0x3d, 0xf0, 0xbf, 0x00, 0xbe,
    0x18, 0xa6, 0x96, 0x3d, 0xd0, 0x0e, 0xa1, 0xbc, 0x97, 0xbc,
    0x2a, 0x3d, 0x95, 0x83, 0x6c, 0x3e, 0x1d, 0x87, 0x40, 0xbd,
    0x55, 0xfa, 0x24, 0x3e, 0x15, 0x12, 0x36, 0x3e, 0x6b, 0x2d,
    0xb6, 0xbd, 0xc4, 0x21, 0x6f, 0xbd, 0xa9, 0xb3, 0x82, 0xbd,
    0x63, 0x9e, 0xc1, 0xbd, 0x9d, 0x9a, 0xb5, 0xbd, 0xb4, 0x55,
    0x3c, 0xbd, 0x41, 0x9e, 0xc1, 0x3c, 0x76, 0xf7, 0xe0, 0x3d,
    0xcb, 0xf1, 0xe8, 0x3c, 0xbd, 0x5b, 0xbd, 0xbd, 0xa3, 0x5d,
    0x75, 0xbe, 0xed, 0x87, 0xfb, 0xbd, 0xa2, 0x3f, 0xd5, 0x3c,
    0xfe, 0x2c, 0xb5, 0x3d, 0xf9, 0xeb, 0x90, 0xbb, 0xfe, 0xea,
    0xe8, 0x3d, 0x1d, 0xc9, 0xed, 0xbd, 0xe6, 0xd2, 0xe5, 0x3d,
    0x98, 0xe3, 0x32, 0xbc, 0x1d, 0xe4, 0x27, 0xbe, 0x0b, 0x7e,
    0xba, 0x3d, 0x62, 0x06, 0x1e, 0x3e, 0x67, 0x39, 0x81, 0xbd,
    0x28, 0x7f, 0xfc, 0x3c, 0xca, 0x0b, 0xa4, 0x3d, 0x09, 0x91,
    0x1e, 0xbd, 0x34, 0x55, 0x29, 0x3d, 0x68, 0x95, 0x75, 0xbe,
    0xd8, 0x90, 0x8e, 0x3d, 0xe1, 0x3e, 0x92, 0x3c, 0x9a, 0x90,
    0x91, 0xbd, 0x15, 0x90, 0x2c, 0x3e, 0xd5, 0xc3, 0xfb, 0x3d,
    0xcd, 0xd4, 0x43, 0xbe, 0xad, 0x5b, 0xc7, 0xbd, 0xee, 0x11,
    0x56, 0x3c, 0x18, 0x73, 0xa0, 0x3d, 0x57, 0x20, 0x56, 0x3d,
    0xdf, 0xb6, 0x2d, 0xbe, 0x54, 0xb2, 0xa9, 0xbd, 0x32, 0xb1,
    0x82, 0xbd, 0x6f, 0xd2, 0x39, 0xbe, 0x8e, 0xa2, 0x07, 0x3e,
    0x7b, 0x84, 0xd2, 0xbc, 0x37, 0x92, 0x08, 0x3e, 0x7d, 0x4c,
    0x52, 0xbd, 0x19, 0x64, 0x70, 0x3d, 0xd0, 0xbc, 0xcb, 0xbd,
    0x18, 0x6c, 0xe8, 0xbd, 0x32, 0x70, 0x23, 0x3d, 0x05, 0x89,
    0x1e, 0x3d, 0x84, 0xc6, 0x2e, 0xbe, 0xd7, 0xae, 0xa1, 0xbd,
    0x46, 0xb1, 0xef, 0x3c, 0x45, 0xfc, 0x51, 0xbd, 0x84, 0xdd,
    0xd9, 0x3d, 0x78, 0x72, 0xa1, 0x3e, 0x86, 0x0d, 0x27, 0x3e,
    0x4a, 0x1d, 0xd3, 0x3b, 0x16, 0xd8, 0x14, 0xbe, 0x06, 0x0f,
    0x56, 0xbb, 0x10, 0x56, 0xb0, 0x3d, 0xca, 0x0f, 0x94, 0xbd,
    0xa6, 0x00, 0xb4, 0xba, 0x76, 0x1e, 0xfe, 0x3d, 0x04, 0xae,
    0x58, 0xbe, 0xa9, 0xdf, 0xb3, 0x3d, 0xb3, 0x83, 0x2d, 0xbd,
    0x7a, 0x69, 0xbb, 0xbd, 0xf0, 0xbd, 0x5e, 0xbe, 0x23, 0x2d,
    0xc6, 0xbd, 0x91, 0xe7, 0x07, 0x3d, 0xe3, 0xdc, 0x18, 0xbe,
    0x04, 0xc1, 0x1a, 0xbe, 0x04, 0x83, 0x39, 0x3d, 0xd6, 0x8e,
    0x0d, 0x3e, 0x26, 0x19, 0x30, 0xbd, 0x2a, 0x91, 0xae, 0x3c,
    0xfa, 0xad, 0x34, 0x3e, 0xd4, 0x62, 0x3a, 0x3d, 0xf2, 0x66,
    0x2e, 0x3e, 0x86, 0xf8, 0x33, 0x3e, 0xec, 0x3b, 0xe1, 0xbc,
    0x4d, 0x71, 0x16, 0xbc, 0x64, 0xf2, 0xa2, 0xbd, 0x1e, 0x77,
    0xda, 0x3d, 0x19, 0xc5, 0xc1, 0xbc, 0xab, 0x1c, 0x35, 0x3d,
    0xce, 0x60, 0x47, 0x3d, 0xcf, 0x06, 0x21, 0xbe, 0xce, 0xc5,
    0x1f, 0x3d, 0xf8, 0x89, 0xb1, 0x3d, 0xa2, 0x66, 0x96, 0x3d,
    0xa6, 0x6f, 0x93, 0x3d, 0x97, 0x44, 0x64, 0x3d, 0x41, 0x26,
    0x3a, 0xbd, 0x77, 0x3c, 0xb4, 0x3d, 0x32, 0xd7, 0xa4, 0x3d,
    0xc9, 0xac, 0x6b, 0x3d, 0x92, 0xa2, 0x00, 0xbe, 0x80, 0x37,
    0x31, 0x3e, 0xb3, 0x68, 0x83, 0xbd, 0x5a, 0x77, 0xdc, 0xbd,
    0x28, 0xa1, 0x23, 0xbd, 0x2f, 0x34, 0xe6, 0x3d, 0x74, 0x2a,
    0x4c, 0xbc, 0xf5, 0x9d, 0xc8, 0x3c, 0xe1, 0xd5, 0x3a, 0xbd,
    0x3c, 0xf4, 0x5c, 0x3d, 0x91, 0x75, 0x84, 0xbc, 0x8c, 0x3e,
    0x5f, 0xbe, 0xf6, 0xca, 0x9e, 0xbd, 0x2a, 0x66, 0x15, 0xbb,
    0x94, 0x42, 0x34, 0xbd, 0x94, 0x1b, 0xae, 0x3b, 0xeb, 0xfd,
    0x2b, 0x3e, 0xf5, 0x6a, 0x17, 0x3e, 0xc3, 0x1a, 0x9a, 0xbc,
    0x29, 0x59, 0xaf, 0x3d, 0xcd, 0x89, 0x0c, 0xbe, 0x2b, 0xe4,
    0x96, 0x3d, 0xc1, 0x6f, 0x13, 0xbe, 0x16, 0x0d, 0x1f, 0xbe,
    0xdc, 0x8a, 0x1b, 0xbe, 0x10, 0xf7, 0x0d, 0x3e, 0xd9, 0x57,
    0x46, 0x3d, 0x71, 0xfc, 0xfb, 0xbd, 0xea, 0xa3, 0x77, 0xbc,
    0xac, 0x76, 0x05, 0x3e, 0xbe, 0xea, 0x2e, 0x3d, 0xbd, 0xda,
    0x26, 0x3e, 0x2b, 0x17, 0x11, 0xbe, 0x58, 0xc5, 0x3c, 0x3e,
    0x1a, 0xe7, 0xd8, 0x3d, 0xa1, 0xb8, 0x82, 0xbd, 0x6c, 0x92,
    0xe4, 0x3d, 0x80, 0xe2, 0xe4, 0x3d, 0xcb, 0x3b, 0xbd, 0xbd,
    0xb2, 0xb6, 0xde, 0x3d, 0x2b, 0xf9, 0x81, 0xbd, 0x4a, 0xdf,
    0x4b, 0x3e, 0x36, 0x76, 0x29, 0xbd, 0x7f, 0xc2, 0x9d, 0xbd,
    0x32, 0xe5, 0xa7, 0xbd, 0x04, 0xfa, 0x80, 0xbd, 0xbe, 0x60,
    0x23, 0xbe, 0x15, 0x32, 0x68, 0xbd, 0x24, 0x97, 0x8c, 0xbc,
    0xf8, 0xb6, 0x77, 0x3d, 0xab, 0x19, 0x01, 0xbd, 0x1e, 0x35,
    0xee, 0x3d, 0xcf, 0x52, 0x8b, 0x3c, 0x8e, 0xf5, 0x6d, 0x3d,
    0x20, 0xc7, 0x0f, 0x3d, 0x01, 0x03, 0xe1, 0xbd, 0xcd, 0xd6,
    0x1e, 0x3e, 0x75, 0x03, 0xfc, 0xbd, 0x26, 0x4c, 0x06, 0x3e,
    0x6d, 0xfd, 0x83, 0x3c, 0xbd, 0xb0, 0x72, 0x3d, 0xf9, 0x72,
    0x14, 0x3e, 0x99, 0xba, 0x3b, 0x3d, 0x6c, 0xaa, 0x5f, 0x3e,
    0xfa, 0xa7, 0xcc, 0x3b, 0x35, 0xd6, 0x81, 0xbd, 0x92, 0xcd,
    0x49, 0xbd, 0x22, 0x92, 0x9b, 0xbd, 0x45, 0x33, 0x01, 0xbe,
    0xa8, 0xb9, 0x27, 0x3c, 0x9d, 0xc2, 0x0d, 0x3e, 0x3a, 0x77,
    0x00, 0xbe, 0xec, 0x86, 0x58, 0xbd, 0x26, 0xca, 0x94, 0x3b,
    0xf2, 0x94, 0xb4, 0xbd, 0xbc, 0x2d, 0xe5, 0xbd, 0x06, 0x46,
    0x23, 0xbd, 0x58, 0xf0, 0x8f, 0x3e, 0xb1, 0x11, 0x42, 0xbe,
    0x7b, 0x32, 0x53, 0x3e, 0xe5, 0x6a, 0x78, 0xbd, 0xde, 0x65,
    0x61, 0xbd, 0x7c, 0x60, 0x92, 0x3e, 0xe4, 0xfa, 0xb5, 0x3c,
    0xc2, 0xd5, 0x61, 0xbc, 0x4c, 0x36, 0x9f, 0x3d, 0xd8, 0xbf,
    0x11, 0x3e, 0x66, 0x99, 0x0f, 0xbd, 0x3b, 0x24, 0x2b, 0x3d,
    0x1c, 0xa4, 0x6f, 0x3d, 0xbd, 0x51, 0xc1, 0xbd, 0xcf, 0x95,
    0x22, 0x3e, 0xc4, 0x56, 0x1a, 0xbd, 0x69, 0x91, 0xde, 0xbc,
    0x03, 0xab, 0x9b, 0xbd, 0x1e, 0xa2, 0xb4, 0xbd, 0xe4, 0xe2,
    0x3d, 0x3d, 0xc8, 0x68, 0x51, 0xbd, 0x98, 0x62, 0x35, 0xbe,
    0x20, 0x2f, 0x12, 0x3e, 0x54, 0xe4, 0xff, 0xbd, 0xe7, 0xa2,
    0x55, 0x3e, 0x99, 0x85, 0x24, 0xbc, 0x2e, 0x78, 0x38, 0x3e,
    0x27, 0xa2, 0xce, 0xbc, 0xf2, 0x86, 0x11, 0xbd, 0xf3, 0x8f,
    0xca, 0x3d, 0xbd, 0x4c, 0xb7, 0xbc, 0xa7, 0xed, 0x37, 0x3e,
    0xb5, 0x22, 0x42, 0xbe, 0xf0, 0xe6, 0xbb, 0xbb, 0x94, 0x01,
    0x81, 0xbb, 0x01, 0xd4, 0xc9, 0xbd, 0x73, 0x97, 0x5e, 0x3e,
    0x5a, 0x69, 0x12, 0xbe, 0x98, 0xc8, 0x2c, 0x3e, 0x55, 0x0b,
    0x00, 0x3d, 0xf5, 0xbd, 0x6c, 0xbd, 0xbf, 0xee, 0x70, 0xbe,
    0x6d, 0x45, 0x79, 0xbd, 0xb4, 0x13, 0x1f, 0xbd, 0x5b, 0xa0,
    0x62, 0xbd, 0xac, 0x6d, 0xa7, 0xbd, 0xad, 0x9a, 0x6b, 0x3c,
    0x15, 0x3b, 0xef, 0x3d, 0xd4, 0x45, 0x25, 0xbd, 0xa4, 0xf8,
    0x77, 0x3d, 0x31, 0xe8, 0x03, 0xbe, 0x4b, 0x72, 0x95, 0x3d,
    0x99, 0x2b, 0xf2, 0x3d, 0x9f, 0xff, 0x41, 0x3d, 0x3a, 0x8c,
    0x3f, 0xbd, 0xef, 0x6d, 0x0b, 0xbe, 0x9e, 0xde, 0xc2, 0xbd,
    0x39, 0x47, 0xb3, 0xbd, 0xbd, 0xdd, 0xcd, 0x3c, 0x58, 0xef,
    0x5a, 0xbd, 0xef, 0x11, 0xc3, 0x3d, 0xf5, 0x2d, 0xa9, 0x3d,
    0xec, 0x75, 0xd7, 0xbd, 0x32, 0x6b, 0x77, 0xbe, 0xc4, 0xfb,
    0x0e, 0x3e, 0xc0, 0xed, 0x13, 0xbe, 0x95, 0x3f, 0xef, 0x3c,
    0x29, 0x17, 0x21, 0xbe, 0xd8, 0xe0, 0xcf, 0xbd, 0x62, 0xdb,
    0x97, 0x3c, 0xea, 0xf6, 0x02, 0x3b, 0xd0, 0x4b, 0xc8, 0x3d,
    0x4c, 0xa6, 0x2d, 0x3e, 0x99, 0x4e, 0x99, 0xbb, 0x86, 0x4a,
    0x08, 0xbe, 0x90, 0x1c, 0x39, 0xbe, 0x7a, 0x1a, 0x19, 0x3e,
    0x03, 0xf5, 0x51, 0xbc, 0x85, 0x3d, 0xec, 0xbb, 0x9a, 0xb9,
    0xa4, 0xbd, 0x9d, 0x49, 0x4c, 0xbd, 0xa6, 0xa3, 0x30, 0xbd,
    0x73, 0xe9, 0xca, 0x3d, 0x1c, 0x2e, 0xe7, 0x3c, 0x5a, 0xbd,
    0xab, 0x3d, 0x86, 0x39, 0x8e, 0xbd, 0xfd, 0x10, 0xda, 0xbd,
    0x80, 0x77, 0x8e, 0xbd, 0xb3, 0xb5, 0xbe, 0xbc, 0x71, 0x26,
    0xa8, 0x3d, 0x5a, 0x5f, 0xca, 0x3d, 0xa5, 0x3c, 0x93, 0xbd,
    0xdd, 0x27, 0xfe, 0x3d, 0x36, 0xaf, 0x39, 0x3e, 0x03, 0x74,
    0x0a, 0xbe, 0x5b, 0xb9, 0xe9, 0xbd, 0x4d, 0x4e, 0x9b, 0x3e,
    0x77, 0x42, 0xe5, 0xbd, 0x06, 0x5e, 0xba, 0xbd, 0xce, 0x9a,
    0x56, 0xbd, 0x98, 0x40, 0x08, 0xbe, 0x81, 0x04, 0x73, 0xbd,
    0xae, 0x8f, 0x20, 0xbc, 0x96, 0x86, 0xf4, 0xbc, 0x05, 0x06,
    0x79, 0x3d, 0x5c, 0x2f, 0xc3, 0xbd, 0xe5, 0xfa, 0x8c, 0x3c,
    0x14, 0xe4, 0x71, 0xbd, 0x66, 0x83, 0xee, 0x3d, 0xb7, 0xaf,
    0x21, 0xbe, 0x43, 0xc9, 0x5a, 0xbd, 0x0d, 0x2c, 0xc1, 0x3d,
    0xe6, 0x21, 0x58, 0x3b, 0xa4, 0x9a, 0x3f, 0xbe, 0x7c, 0x4d,
    0xc1, 0xbd, 0x8c, 0x78, 0x87, 0x3c, 0x55, 0x8c, 0x23, 0x3d,
    0x7e, 0xe7, 0x1e, 0x3e, 0xa6, 0x5d, 0x23, 0x3e, 0x3d, 0x2e,
    0x05, 0x3e, 0xe2, 0xd6, 0xcc, 0x3d, 0x2d, 0x47, 0xdf, 0xbd,
    0x6b, 0xe6, 0x1d, 0x3c, 0xf0, 0x39, 0x36, 0x3d, 0x38, 0x6c,
    0x76, 0x3d, 0x2d, 0xae, 0x33, 0xbd, 0x5c, 0x0d, 0x9d, 0x3d,
    0x2f, 0x32, 0x3c, 0x3d, 0x5d, 0x31, 0x2d, 0x3e, 0xa6, 0x5d,
    0x44, 0xbc, 0x61, 0xdf, 0x00, 0x3e, 0x4b, 0xd7, 0x49, 0x3d,
    0x5e, 0x7e, 0xd5, 0xb9, 0x88, 0x2b, 0xa0, 0x3d, 0x8a, 0x62,
    0x87, 0xbd, 0xb5, 0xd5, 0xa7, 0xbd, 0xae, 0x4f, 0x53, 0x3c,
    0x81, 0x4f, 0x57, 0x3d, 0x8a, 0x33, 0xf2, 0xbd, 0x97, 0x96,
    0xaf, 0xbd, 0x8b, 0x3b, 0x52, 0x3e, 0xfc, 0x62, 0xf6, 0x3c,
    0x81, 0x38, 0xb6, 0xbd, 0x4d, 0x9a, 0x45, 0xbe, 0x33, 0xdc,
    0xfc, 0x3b, 0x40, 0x88, 0x21, 0xbd, 0x9f, 0x49, 0x4a, 0x3d,
    0xdf, 0xeb, 0x25, 0xba, 0x3b, 0xb7, 0x3f, 0x3e, 0x23, 0xb3,
    0x15, 0x3d, 0x4e, 0xee, 0x91, 0xbd, 0xf4, 0x16, 0xad, 0xbb,
    0x23, 0x2e, 0xda, 0x3c, 0x4e, 0x22, 0xa5, 0x3c, 0x01, 0xac,
    0x14, 0x3d, 0x5b, 0x27, 0x20, 0x3e, 0xaa, 0xb2, 0xc3, 0xbd,
    0x16, 0x31, 0x60, 0xbd, 0x80, 0xe5, 0x9c, 0xbc, 0x24, 0x43,
    0x76, 0x3c, 0x7e, 0x89, 0x02, 0xbc, 0x8a, 0xf8, 0x18, 0xbc,
    0x53, 0x52, 0xf3, 0xbd, 0x02, 0xc3, 0xe7, 0xbd, 0x8b, 0xc9,
    0x6e, 0xbb, 0x7f, 0x26, 0xd0, 0x3d, 0x91, 0xd4, 0x34, 0xbe,
    0x49, 0x5b, 0x96, 0x3d, 0x35, 0x78, 0x90, 0x3d, 0x09, 0x6c,
    0x0d, 0xbd, 0x93, 0x0a, 0x21, 0x3d, 0x10, 0x83, 0x49, 0xbd,
    0xc5, 0x18, 0x0b, 0x3e, 0xba, 0xd3, 0xfe, 0x3d, 0xc1, 0x92,
    0x84, 0xbc, 0x65, 0x93, 0x36, 0xbd, 0x44, 0x4f, 0x55, 0xbd,
    0x43, 0xbf, 0x13, 0xbe, 0x23, 0xbf, 0x4a, 0x3d, 0x6e, 0x85,
    0xa7, 0xbc, 0xfe, 0x51, 0x20, 0x3e, 0xc0, 0x68, 0x51, 0x3d,
    0x16, 0x11, 0x4a, 0x3c, 0xa8, 0x58, 0x9f, 0xbd, 0xc0, 0xca,
    0x81, 0x3d, 0x5a, 0x35, 0x01, 0xbe, 0x6a, 0xa3, 0x37, 0x3e,
    0x5c, 0x8a, 0x8d, 0x3d, 0x09, 0xe4, 0x26, 0xbd, 0x23, 0xfe,
    0xc0, 0x3a, 0x68, 0xf8, 0x93, 0x3d, 0xf4, 0x61, 0xd2, 0xbd,
    0xa1, 0x2d, 0x91, 0x3c, 0x99, 0xac, 0xba, 0x3d, 0xbb, 0xca,
    0x98, 0xbb, 0xb2, 0x1c, 0x84, 0xbc, 0x88, 0x25, 0x69, 0x3d,
    0x63, 0x79, 0x2a, 0xbd, 0x47, 0x9e, 0x8c, 0x3d, 0x8d, 0x3a,
    0xdb, 0x3c, 0xab, 0x3f, 0xd5, 0xbc, 0x6d, 0xca, 0xe4, 0xbd,
    0x3f, 0xaa, 0x0d, 0x3e, 0x0f, 0x85, 0x25, 0xbe, 0x09, 0xe6,
    0x2f, 0x3d, 0xdf, 0xdf, 0x0f, 0xbe, 0xff, 0x50, 0x70, 0xbd,
    0xd8, 0xfa, 0xf6, 0xbd, 0x4c, 0x32, 0x1d, 0x3e, 0xe5, 0x94,
    0xf3, 0x3d, 0x6c, 0x44, 0x64, 0xbe, 0xd6, 0x17, 0x33, 0xbd,
    0xec, 0xf5, 0xd2, 0x3c, 0xf5, 0x09, 0x0d, 0x3c, 0x3a, 0xd9,
    0x9f, 0xbc, 0x13, 0xbb, 0xe0, 0xbc, 0x79, 0x09, 0x04, 0x3e,
    0x97, 0x3b, 0xae, 0x3c, 0x05, 0x15, 0xf8, 0x3d, 0xd4, 0x35,
    0x08, 0xbe, 0x6c, 0x98, 0x34, 0x3e, 0x30, 0x07, 0x47, 0x3e,
    0x5f, 0x61, 0x8f, 0xbd, 0xfe, 0x19, 0x97, 0x3d, 0x79, 0xcd,
    0x1c, 0x3d, 0x9e, 0x28, 0x23, 0x3d, 0xc8, 0x14, 0x2a, 0x3e,
    0xd0, 0x5f, 0x91, 0x3c, 0x08, 0x86, 0x4d, 0x3e, 0xad, 0x87,
    0xed, 0xbd, 0x0a, 0x81, 0xc6, 0x3c, 0x1e, 0x9f, 0x2e, 0x3e,
    0x7c, 0x9d, 0xec, 0xbb, 0xe4, 0x42, 0x4f, 0xbd, 0x11, 0xe0,
    0x93, 0x3c, 0x24, 0x79, 0x5e, 0x3e, 0x8f, 0x00, 0xe0, 0xbc,
    0xe1, 0x15, 0x17, 0xbd, 0x5c, 0x94, 0xcc, 0x3d, 0x95, 0x07,
    0xfa, 0xbd, 0xae, 0x7a, 0x58, 0x3e, 0xff, 0x16, 0x13, 0xbd,
    0x6e, 0x62, 0xc2, 0xbb, 0x37, 0xe4, 0x4e, 0xbe, 0xaf, 0xea,
    0x1a, 0xbc, 0xfa, 0xfc, 0x91, 0x3d, 0x60, 0xb0, 0x16, 0xbc,
    0x0d, 0x1d, 0x36, 0x3e, 0x31, 0x6f, 0x10, 0x3d, 0x96, 0x79,
    0x04, 0xbe, 0x27, 0x9b, 0x1e, 0x3e, 0x50, 0xe4, 0x00, 0x3d,
    0x43, 0x54, 0x99, 0xbc, 0x58, 0xdc, 0x0b, 0xba, 0x67, 0xf9,
    0x8f, 0x3d, 0x5a, 0xcd, 0x00, 0x3e, 0x08, 0xb3, 0xd0, 0x3d,
    0x0e, 0xc9, 0x41, 0xbe, 0xa5, 0xd4, 0x39, 0x3e, 0x83, 0x02,
    0xc9, 0xbd, 0x01, 0x4f, 0xd6, 0xbd, 0xbc, 0xe1, 0x46, 0x3e,
    0x17, 0xd3, 0x41, 0x3e, 0xeb, 0x74, 0x19, 0x3e, 0xfb, 0x3b,
    0xd4, 0xbd, 0x63, 0x4c, 0xbb, 0xbd, 0x28, 0xff, 0x4f, 0xbe,
    0x9a, 0x39, 0x9f, 0xbd, 0x38, 0x9e, 0xb3, 0xbd, 0x6d, 0xff,
    0x8a, 0xbc, 0x7a, 0xc9, 0x31, 0xbe, 0x42, 0x91, 0x7d, 0x3c,
    0xee, 0x26, 0xf7, 0x3d, 0xfa, 0xed, 0x0a, 0x3e, 0x15, 0x4d,
    0xd2, 0x3d, 0x24, 0xc0, 0x56, 0xbd, 0xc5, 0x4b, 0x31, 0x3e,
    0xbe, 0xcd, 0xfb, 0x3d, 0xcd, 0x1e, 0x53, 0x3c, 0x14, 0x81,
    0x4f, 0xbe, 0xc6, 0x6b, 0x2b, 0xbc, 0x7d, 0x53, 0xf6, 0xbd,
    0x33, 0x3a, 0x5b, 0xbd, 0x25, 0x1b, 0x5e, 0x3d, 0x53, 0xe0,
    0x48, 0xbd, 0x7e, 0x4c, 0x06, 0x3e, 0xfe, 0xef, 0xf7, 0x3c,
    0x58, 0x23, 0x95, 0xbd, 0x17, 0x28, 0x59, 0x3e, 0x4b, 0xd6,
    0x94, 0xbd, 0xd8, 0x41, 0x10, 0xbd, 0xad, 0x10, 0x17, 0xbe,
    0x08, 0x0b, 0xd7, 0x3d, 0x96, 0x94, 0xd8, 0xbd, 0xf5, 0xdd,
    0x31, 0xbe, 0x58, 0x11, 0x53, 0xbd, 0xcc, 0xf7, 0xdf, 0xbd,
    0xeb, 0x14, 0xe4, 0xbb, 0x8c, 0x51, 0xf5, 0xbd, 0x79, 0xcb,
    0xf2, 0x3d, 0x7c, 0x00, 0xa3, 0xbd, 0x5f, 0x7a, 0xee, 0x3d,
    0x98, 0x14, 0x17, 0x3d, 0x8c, 0xb4, 0xfd, 0xbd, 0x56, 0x68,
    0x92, 0xbd, 0xfe, 0xce, 0x93, 0xbc, 0x31, 0xb0, 0x7f, 0xbd,
    0xb3, 0x99, 0x1b, 0xbd, 0xe6, 0x97, 0x64, 0x3d, 0x2d, 0x42,
    0xe2, 0x3d, 0x05, 0x43, 0xa9, 0xbd, 0xc0, 0x2b, 0xc1, 0xbd,
    0xe7, 0x38, 0x5b, 0x3e, 0x65, 0x40, 0xc1, 0xbd, 0x62, 0x7a,
    0x8e, 0xbd, 0x46, 0x89, 0x86, 0xbb, 0x4b, 0xd3, 0xe0, 0xbd,
    0x23, 0x9d, 0x2b, 0xbc, 0x0b, 0x06, 0x15, 0xbd, 0xd3, 0xb5,
    0xd3, 0x3d, 0x01, 0xb5, 0x96, 0x3d, 0xac, 0xd2, 0x77, 0x3c,
    0x13, 0x42, 0x90, 0x3d, 0xfa, 0x48, 0x66, 0xbb, 0x2f, 0x87,
    0x28, 0xbd, 0x43, 0x57, 0x81, 0xbe, 0xb6, 0xef, 0x6f, 0xbd,
    0x35, 0xb2, 0xe3, 0x3d, 0xbc, 0xc7, 0x12, 0x3c, 0x1c, 0xbf,
    0xe8, 0xbc, 0xa7, 0xe8, 0x15, 0xbd, 0xc7, 0xde, 0x52, 0x3d,
    0xf7, 0xc7, 0xbf, 0xbc, 0xc3, 0xf4, 0x84, 0xbc, 0x01, 0x16,
    0x06, 0x3e, 0xfc, 0x6a, 0xd3, 0x3b, 0xb8, 0x79, 0x7d, 0x3e,
    0xaf, 0xd3, 0xd3, 0x3c, 0xec, 0xcd, 0xc2, 0xbd, 0xc4, 0xf6,
    0x38, 0xbd, 0xd7, 0x85, 0x51, 0x3e, 0xc1, 0xa5, 0x8e, 0xbd,
    0xd4, 0xb5, 0x9e, 0x3d, 0x2b, 0x6d, 0x38, 0xbd, 0xd0, 0xb8,
    0xc4, 0x3d, 0x88, 0xce, 0xf1, 0xbd, 0x68, 0xe2, 0x7b, 0x3c,
    0xfd, 0xed, 0x08, 0x3e, 0xc1, 0x95, 0x53, 0x3c, 0x2a, 0x44,
    0xe0, 0xbd, 0x41, 0x8c, 0xe9, 0xbd, 0xeb, 0x15, 0x66, 0x3d,
    0xa5, 0x05, 0xe9, 0x3d, 0x1b, 0xe4, 0xb2, 0x3d, 0xf1, 0x6b,
    0xe2, 0xbd, 0xe9, 0x23, 0x43, 0xbd, 0xc8, 0xb5, 0xd0, 0x3d,
    0x3d, 0xc4, 0x10, 0x3e, 0x3a, 0x80, 0x0a, 0xbd, 0xcc, 0xe3,
    0x18, 0xbe, 0xb2, 0xff, 0x19, 0x3e, 0xdd, 0xf9, 0x76, 0xbd,
    0x62, 0x07, 0x66, 0x3d, 0xef, 0x28, 0x34, 0xbd, 0x44, 0x65,
    0x93, 0x3e, 0x45, 0x5c, 0x8c, 0xbc, 0x74, 0xf4, 0x12, 0xbe,
    0xb8, 0x59, 0x65, 0x3d, 0x34, 0x44, 0x09, 0x3e, 0xe6, 0xa4,
    0x60, 0xbe, 0x4b, 0x26, 0x1c, 0xbd, 0x77, 0x9f, 0x82, 0x3d,
    0x32, 0xd2, 0xb8, 0x3d, 0xda, 0x33, 0x0a, 0xbe, 0xaa, 0xba,
    0xa3, 0x3d, 0x4a, 0xc4, 0x83, 0x3d, 0x6c, 0xac, 0x03, 0xbb,
    0x36, 0x98, 0x05, 0xbe, 0x68, 0x31, 0x0e, 0xb9, 0xc2, 0x43,
    0x03, 0xbe, 0x40, 0x03, 0x04, 0x3d, 0xb5, 0xa8, 0xa2, 0xbc,
    0x11, 0xe3, 0xd5, 0xbd, 0x21, 0x5b, 0x60, 0xbc, 0x0f, 0x0c,
    0x8c, 0x3d, 0x9a, 0xf0, 0x07, 0x3d, 0x59, 0x82, 0xd2, 0x3d,
    0x34, 0x96, 0xfa, 0xbd, 0x0b, 0xfe, 0x03, 0x3e, 0xc6, 0x41,
    0x2e, 0x3e, 0x7a, 0x28, 0xa2, 0xbd, 0x26, 0x89, 0xd6, 0x3d,
    0x12, 0xd0, 0x56, 0x3d, 0xbf, 0x27, 0x4c, 0xbd, 0xda, 0xdd,
    0x0b, 0x3e, 0x5f, 0xa2, 0x86, 0x3d, 0x40, 0x9f, 0x0a, 0x3e,
    0xca, 0x56, 0x39, 0xbd, 0x54, 0x8b, 0xdb, 0x3b, 0xf7, 0xde,
    0x0f, 0xbe, 0x9e, 0x3c, 0x10, 0xbe, 0x47, 0xe0, 0x11, 0xbe,
    0x26, 0x60, 0x16, 0x3e, 0x52, 0xaa, 0x8b, 0x3c, 0xb3, 0xa2,
    0x92, 0xbd, 0x28, 0xed, 0x43, 0xbd, 0xd9, 0x1f, 0x8c, 0x3d,
    0x08, 0x5b, 0x90, 0x3b, 0x5a, 0x1a, 0x49, 0xbb, 0x1a, 0xea,
    0xf9, 0xbc, 0xa3, 0x6a, 0x8a, 0xbd, 0xa9, 0x5c, 0x00, 0x3d,
    0x6b, 0x10, 0xe7, 0xbd, 0x28, 0x9b, 0x34, 0xbd, 0xb0, 0x1e,
    0x16, 0x3c, 0x15, 0x56, 0x6c, 0x3d, 0xe8, 0x10, 0xf8, 0x3d,
    0xb4, 0xa7, 0x43, 0x3d, 0x08, 0xb3, 0xb1, 0x3d, 0x63, 0xf4,
    0xeb, 0xbd, 0xfc, 0x24, 0x20, 0xbd, 0x46, 0x7c, 0x05, 0x3d,
    0x71, 0x20, 0x5e, 0xbd, 0xb3, 0x47, 0xd4, 0x3c, 0x66, 0x9c,
    0xf0, 0x3d, 0x19, 0x22, 0x34, 0x3e, 0x7f, 0xc9, 0x83, 0xbd,
    0x7c, 0x29, 0x6d, 0x3d, 0xea, 0x66, 0xc9, 0xbd, 0x6f, 0x70,
    0x2e, 0xbe, 0x4d, 0xcf, 0xf1, 0xbd, 0x77, 0x00, 0xfb, 0xbd,
    0x24, 0x43, 0x55, 0x3e, 0x9b, 0xdf, 0xcf, 0xbd, 0x14, 0x22,
    0x0d, 0x3c, 0xd1, 0xc4, 0x60, 0xbd, 0x03, 0xd1, 0xb9, 0xbd,
    0x2a, 0x0b, 0x98, 0x3e, 0xc7, 0x68, 0xde, 0xbd, 0xb9, 0x45,
    0x46, 0xbe, 0x1d, 0xc6, 0xc1, 0x3c, 0x38, 0xdb, 0x96, 0x3d,
    0x36, 0xc2, 0x00, 0xbc, 0xe5, 0x8b, 0x72, 0xbd, 0xa7, 0x1b,
    0xac, 0x3d, 0x84, 0x0c, 0x0a, 0xbe, 0x5e, 0x95, 0x4a, 0x3c,
    0xc3, 0xe6, 0xcf, 0x3d, 0x44, 0x2b, 0x0d, 0x3e, 0xd4, 0xa5,
    0xc7, 0xbd, 0x26, 0xa3, 0x7f, 0x3d, 0x99, 0x0c, 0xfe, 0x3d,
    0x75, 0x90, 0x61, 0x3d, 0x4a, 0x3d, 0x34, 0xbe, 0x6f, 0xcd,
    0x79, 0x3b, 0xd2, 0xcf, 0x0a, 0xbc, 0xca, 0xbd, 0xf8, 0x3d,
    0xef, 0xa5, 0x7b, 0x3d, 0x71, 0x82, 0x17, 0xbc, 0x50, 0x6f,
    0x16, 0xbc, 0x25, 0x4f, 0x76, 0x3d, 0x5e, 0x31, 0x6c, 0xbc,
    0x41, 0x0b, 0x0b, 0xbc, 0x68, 0x38, 0x4d, 0x3e, 0x23, 0xf6,
    0x16, 0xbc, 0xf7, 0xe2, 0x7e, 0xbd, 0x89, 0xc9, 0x49, 0x3c,
    0x44, 0xcc, 0xd2, 0xbd, 0x78, 0x99, 0xdb, 0x3d, 0xae, 0x0f,
    0x28, 0xbe, 0x05, 0xcd, 0x02, 0x3e, 0x1a, 0x5f, 0x89, 0x3d,
    0x24, 0x31, 0x27, 0x3d, 0xb1, 0x06, 0x9d, 0xbd, 0xb0, 0x4a,
    0xcb, 0x3c, 0xe5, 0xeb, 0x5c, 0x3d, 0x5f, 0x18, 0x11, 0xbd,
    0xdf, 0x76, 0x5a, 0x3d, 0x1b, 0x31, 0xe5, 0xbc, 0xd5, 0x5c,
    0x02, 0x3e, 0xeb, 0x73, 0x48, 0xbd, 0x7e, 0x00, 0x41, 0x3c,
    0x46, 0xc2, 0x45, 0xbe, 0xa4, 0x92, 0x73, 0xbd, 0xe9, 0xe6,
    0x20, 0x3e, 0x63, 0x2f, 0x0b, 0xbe, 0xf4, 0xc8, 0xfc, 0xbd,
    0xde, 0x1a, 0x64, 0xbd, 0x98, 0x40, 0x6e, 0xbd, 0x15, 0x28,
    0x8a, 0x3d, 0x2a, 0xd4, 0x5e, 0xbd, 0xde, 0xb7, 0x0b, 0xbe,
    0x3d, 0x9d, 0x19, 0x3e, 0xae, 0xaa, 0xfb, 0x3d, 0x90, 0x02,
    0x65, 0x3c, 0x59, 0x01, 0xf4, 0xbd, 0xf3, 0x51, 0x81, 0x3b,
    0x15, 0x27, 0x95, 0xbd, 0x85, 0xd1, 0xde, 0x3d, 0x6b, 0x38,
    0x0f, 0xbd, 0x1d, 0xb2, 0x62, 0x3c, 0xe3, 0xbc, 0xda, 0x3d,
    0x62, 0x12, 0xf1, 0xbb, 0xc6, 0xc3, 0x45, 0x3c, 0xa1, 0x58,
    0x34, 0x3e, 0xa7, 0xff, 0x41, 0xbe, 0x0a, 0x6f, 0x2b, 0xbd,
    0x19, 0xc5, 0x23, 0xbe, 0x61, 0x03, 0x18, 0x3e, 0x71, 0x11,
    0xfb, 0xbd, 0x24, 0x5c, 0xa1, 0xbd, 0xd7, 0x17, 0xcf, 0x3c,
    0xc4, 0x55, 0xc4, 0x3d, 0xdf, 0x26, 0xb9, 0xbd, 0xaa, 0x5f,
    0xd4, 0x3d, 0x41, 0x99, 0x58, 0x3d, 0x7b, 0x7f, 0x20, 0x3d,
    0xeb, 0xf5, 0x65, 0x3d, 0x1e, 0x1b, 0x76, 0xbd, 0xfd, 0xf3,
    0xe4, 0xbd, 0x3e, 0x6c, 0x36, 0x3d, 0xcd, 0x33, 0xd3, 0x3d,
    0x36, 0x02, 0x79, 0x3d, 0x0e, 0xdb, 0x74, 0xbd, 0x7c, 0xca,
    0x13, 0x3e, 0x27, 0x87, 0x0b, 0x3e, 0x28, 0xac, 0x1b, 0xbe,
    0x9e, 0x25, 0x77, 0x3c, 0xd7, 0x19, 0x59, 0x3d, 0xd1, 0x9f,
    0x3a, 0x3c, 0xd8, 0x4f, 0x6a, 0x3d, 0x87, 0xb7, 0x13, 0xbe,
    0x19, 0x5f, 0x4b, 0xbe, 0x04, 0x48, 0xbf, 0x3c, 0xcf, 0x3e,
    0xc4, 0xbd, 0x61, 0xdc, 0x08, 0xbd, 0x4c, 0x42, 0xb5, 0x3d,
    0x79, 0xbc, 0xc0, 0xbd, 0x03, 0x2d, 0xf5, 0x3d, 0xb3, 0x9f,
    0xf2, 0xbd, 0xc9, 0x66, 0xf0, 0x3d, 0x48, 0x70, 0x68, 0xbe,
    0xca, 0x04, 0x80, 0xbd, 0x6a, 0x8a, 0x55, 0x3d, 0x41, 0xa7,
    0x27, 0xbd, 0x63, 0x10, 0x82, 0xbe, 0x3f, 0x33, 0x1d, 0x3e,
    0x39, 0x4b, 0x56, 0xbd, 0x3e, 0xb0, 0xdf, 0x3b, 0x22, 0x0d,
    0x5e, 0x3d, 0xda, 0xfe, 0x1b, 0x3e, 0x33, 0xe0, 0xfa, 0x3d,
    0x3a, 0x64, 0xd6, 0x3d, 0x95, 0x37, 0x60, 0xbb, 0x95, 0x68,
    0x2b, 0xbe, 0xe9, 0x33, 0x23, 0xbc, 0x95, 0x19, 0x98, 0xbc,
    0x56, 0xfb, 0x16, 0x3d, 0x4d, 0xf5, 0xcb, 0x3d, 0xdb, 0x09,
    0x42, 0x3d, 0xc0, 0x2d, 0xcc, 0x3c, 0x75, 0x18, 0x04, 0x3d,
    0xcb, 0x80, 0x15, 0x3e, 0xd0, 0x83, 0x0e, 0x3e, 0x17, 0x00,
    0xe2, 0xbc, 0x69, 0x7e, 0x75, 0x3c, 0x32, 0x24, 0x39, 0xbd,
    0x21, 0xb3, 0xf2, 0xbd, 0x62, 0xc6, 0x7d, 0xbd, 0x88, 0xb4,
    0xc2, 0xba, 0x79, 0xfc, 0x8d, 0xbd, 0xdc, 0xdd, 0x0a, 0x3d,
    0x7b, 0x73, 0x2f, 0xbe, 0xa9, 0xf3, 0x83, 0x3d, 0xa7, 0x24,
    0x88, 0xbb, 0xef, 0x78, 0x9f, 0x3d, 0xe5, 0x6e, 0xe2, 0xbd,
    0xaa, 0x44, 0x29, 0x3e, 0x88, 0x1c, 0x31, 0x3c, 0x09, 0xca,
    0x08, 0xbd, 0x4e, 0xc9, 0x3d, 0xbe, 0x73, 0xba, 0x05, 0x3e,
    0xa5, 0xbe, 0xe3, 0xbc, 0x40, 0xa9, 0x66, 0xbb, 0x9b, 0xeb,
    0x0b, 0xbe, 0x3f, 0x6d, 0x49, 0x3e, 0x18, 0xbe, 0x06, 0xbd,
    0xb0, 0xe5, 0x1e, 0xbd, 0x40, 0xfe, 0x13, 0xbd, 0xe3, 0x98,
    0x6b, 0x3d, 0xff, 0x80, 0xaa, 0xbc, 0x11, 0x46, 0x10, 0xbe,
    0x56, 0xe5, 0x55, 0xbd, 0x8f, 0xba, 0x66, 0x3d, 0x21, 0x87,
    0x42, 0xbd, 0xaf, 0x55, 0x16, 0x3e, 0x7b, 0xce, 0x76, 0xbd,
    0x1b, 0x15, 0x95, 0xbd, 0x73, 0xc1, 0x2a, 0xbc, 0x6f, 0xbb,
    0x00, 0x3e, 0xf2, 0x28, 0x3c, 0xbd, 0xbc, 0xb2, 0x05, 0xbe,
    0x59, 0xfd, 0xb6, 0xbd, 0x74, 0x79, 0x3a, 0x3e, 0x1b, 0x18,
    0x66, 0x3d, 0x2e, 0x87, 0x65, 0xbe, 0x7c, 0x26, 0xd2, 0xbd,
    0x47, 0xa8, 0x7e, 0xbb, 0x79, 0xcd, 0x13, 0xbd, 0x4c, 0xe5,
    0x73, 0xbd, 0x02, 0x25, 0x34, 0xbc, 0xdf, 0xc3, 0x12, 0xbe,
    0xbc, 0x31, 0x19, 0xbe, 0xe0, 0xce, 0x45, 0xbd, 0x5e, 0xa8,
    0xd7, 0xbb, 0xa9, 0x6e, 0xe4, 0x3d, 0x44, 0x50, 0xd3, 0x3d,
    0x61, 0x04, 0x21, 0xbc, 0x6f, 0x40, 0xbe, 0xbd, 0x54, 0x0c,
    0x81, 0x3d, 0xbb, 0xc7, 0xcd, 0x3c, 0x2b, 0xd4, 0x8a, 0x3b,
    0x52, 0xc6, 0xfb, 0x3c, 0x2e, 0xe0, 0x86, 0x3d, 0xce, 0xbe,
    0xbf, 0xbd, 0x40, 0xa4, 0x7c, 0xbd, 0x83, 0x60, 0xe2, 0x3d,
    0x63, 0x67, 0x2b, 0xbc, 0x39, 0xea, 0xc9, 0x3c, 0x66, 0xb0,
    0x31, 0xbe, 0xfd, 0xfd, 0xb4, 0xbd, 0x9b, 0x5a, 0x6d, 0x3d,
    0xf6, 0xc1, 0x25, 0xbe, 0x3c, 0x3f, 0xac, 0xbd, 0x49, 0x13,
    0x71, 0xbe, 0x2f, 0x3a, 0xa7, 0x3d, 0x18, 0xc3, 0x9d, 0x3d,
    0x8f, 0xd5, 0xae, 0x3d, 0x96, 0x78, 0xce, 0x3d, 0x6d, 0xbe,
    0x0f, 0xbe, 0xc5, 0x31, 0x5f, 0xbc, 0xea, 0x4b, 0xcb, 0xbd,
    0xbd, 0x49, 0x5b, 0x3e, 0x46, 0xdd, 0x8e, 0x3d, 0xf0, 0xcc,
    0xaa, 0x3d, 0x35, 0x43, 0xa2, 0xbd, 0x60, 0x56, 0x06, 0x3e,
    0x1b, 0x6a, 0x38, 0x3e, 0xac, 0x3d, 0xa2, 0xbd, 0x15, 0x56,
    0x57, 0x3d, 0x98, 0x53, 0x9a, 0xbd, 0x8f, 0x44, 0x30, 0x3e,
    0x56, 0x64, 0x1e, 0xbd, 0xa5, 0x91, 0x98, 0xbe, 0xf3, 0xa4,
    0x12, 0x3e, 0xac, 0xa6, 0xe1, 0x3d, 0x71, 0x92, 0x69, 0xbb,
    0xa5, 0x10, 0x40, 0xbd, 0x46, 0x6f, 0x23, 0x3d, 0xf5, 0xf4,
    0xca, 0x3d, 0x3d, 0xc5, 0x39, 0xbe, 0x48, 0xaa, 0xfc, 0xbc,
    0x11, 0x4d, 0x02, 0xbb, 0xcb, 0x00, 0x94, 0x3c, 0xe1, 0x40,
    0x3f, 0x3d, 0x01, 0xba, 0xd1, 0x3d, 0x77, 0x6d, 0x4d, 0x3e,
    0xa5, 0x58, 0xab, 0xbd, 0x50, 0xd9, 0x02, 0xb8, 0xdc, 0xe0,
    0xc1, 0x3d, 0x0c, 0x95, 0xf9, 0xbd, 0x17, 0x41, 0x5e, 0x3d,
    0x26, 0x5d, 0xa9, 0xbe, 0x5b, 0x97, 0xfa, 0x3d, 0xc9, 0xa9,
    0xb0, 0xbd, 0x9c, 0xef, 0x34, 0xbc, 0xba, 0x6c, 0xfa, 0xbd,
    0x40, 0x31, 0x5f, 0xbc, 0xdb, 0xe1, 0x1a, 0x3e, 0x34, 0x37,
    0x99, 0xbd, 0x13, 0x14, 0xb4, 0x3d, 0x75, 0x87, 0x6b, 0x3d,
    0xec, 0xa4, 0x3e, 0xbe, 0x87, 0x7e, 0xc0, 0xbc, 0x0e, 0x97,
    0x8c, 0xbd, 0x83, 0xce, 0xc4, 0x3d, 0x2a, 0x5f, 0x51, 0xbe,
    0x62, 0xc7, 0x1c, 0xbe, 0x51, 0xd2, 0x9b, 0x3c, 0xca, 0xa1,
    0x49, 0x3e, 0x0e, 0x8a, 0x0b, 0xbd, 0x7b, 0x4d, 0xa2, 0x3d,
    0xc6, 0xd8, 0xb1, 0xbd, 0x9b, 0x59, 0x3b, 0x3d, 0x24, 0x52,
    0x1d, 0x3d, 0x96, 0x43, 0x86, 0x3b, 0x9e, 0x7c, 0xc5, 0x3d,
    0xef, 0x12, 0x85, 0x3d, 0xf7, 0x20, 0xca, 0x3d, 0x2d, 0xe5,
    0x42, 0xbc, 0xac, 0xe2, 0x27, 0xbe, 0x17, 0x26, 0x00, 0x3e,
    0xf3, 0x77, 0x06, 0x3c, 0x6c, 0xa9, 0x11, 0xbc, 0x1d, 0x7a,
    0xb0, 0x3c, 0x58, 0x1f, 0x54, 0xbd, 0x05, 0x70, 0xa6, 0xbd,
    0xec, 0xac, 0x49, 0x3e, 0x15, 0x76, 0xcb, 0xbd, 0x31, 0xb3,
    0x1e, 0xbe, 0x78, 0xd4, 0xb6, 0x3d, 0x0e, 0xfb, 0xd9, 0x3d,
    0x25, 0x85, 0xe7, 0xbc, 0xe7, 0xc6, 0xc5, 0xbc, 0x69, 0x4e,
    0xeb, 0x3c, 0x78, 0xb4, 0xa5, 0xbd, 0xba, 0x8c, 0xa1, 0x3c,
    0x5b, 0x33, 0xb5, 0x3d, 0xc2, 0x86, 0x51, 0xbd, 0xa2, 0x19,
    0x3d, 0x3b, 0x72, 0x06, 0xbf, 0xbe, 0x3c, 0x68, 0x0c, 0x3e,
    0x18, 0x65, 0xec, 0x3d, 0x5e, 0xe4, 0x48, 0x3c, 0xcc, 0x7a,
    0x81, 0x3b, 0x1d, 0x61, 0x64, 0xbc, 0x2a, 0x0f, 0xec, 0x3c,
    0x5b, 0x4e, 0xd6, 0x3d, 0x70, 0x21, 0x36, 0xbd, 0x83, 0x9b,
    0xd5, 0xbc, 0x2a, 0x80, 0x95, 0xbc, 0xed, 0xf7, 0xb0, 0xbd,
    0x10, 0xb3, 0xef, 0x3d, 0xf6, 0x1c, 0x31, 0x3e, 0x1e, 0x73,
    0x06, 0x3c, 0x9c, 0x81, 0x97, 0x3c, 0x95, 0xf2, 0x27, 0x3d,
    0x3b, 0xa2, 0x69, 0xbd, 0x76, 0x95, 0xe1, 0x3d, 0x88, 0x49,
    0x62, 0x3d, 0x20, 0x88, 0x33, 0x3c, 0xae, 0x35, 0x3c, 0xbe,
    0x18, 0xa9, 0xf3, 0x3c, 0xe3, 0xf5, 0x0c, 0x3e, 0x79, 0xb7,
    0x9e, 0xbe, 0xdf, 0x40, 0x36, 0x3d, 0xd2, 0x74, 0xc7, 0x3d,
    0x21, 0x8d, 0x8f, 0x3c, 0x3c, 0x38, 0xe5, 0x3d, 0x68, 0x34,
    0xc3, 0xbc, 0xcc, 0x5d, 0x3c, 0x3d, 0x77, 0x5e, 0xd0, 0x3c,
    0xe5, 0x9e, 0x9f, 0x3c, 0xef, 0xba, 0x80, 0x3e, 0xad, 0xb1,
    0x0f, 0xbd, 0xf9, 0x71, 0x0b, 0xbd, 0x22, 0xec, 0x73, 0xbd,
    0x0f, 0xc4, 0xe6, 0x3d, 0x1e, 0x42, 0xc1, 0x3d, 0x5a, 0xe6,
    0x21, 0xbd, 0xf8, 0xd6, 0x68, 0x3c, 0xea, 0xd1, 0x38, 0x3e,
    0xa6, 0x6a, 0x8e, 0x3d, 0xae, 0xe1, 0xeb, 0xbd, 0x54, 0x36,
    0x14, 0x3e, 0x04, 0xb1, 0x6a, 0xbe, 0xe8, 0xfa, 0x45, 0xbe,
    0x0f, 0x90, 0x82, 0xbd, 0xc7, 0x57, 0xc0, 0xbd, 0x7c, 0xee,
    0x67, 0xbc, 0x35, 0xc8, 0x12, 0x3e, 0xc2, 0xde, 0x91, 0x3c,
    0x5b, 0xac, 0xee, 0xbd, 0x8c, 0xe3, 0x66, 0xbd, 0x6d, 0xdf,
    0x1b, 0x3d, 0x18, 0x48, 0x92, 0x3d, 0x6a, 0x1f, 0x73, 0xbe,
    0x92, 0xab, 0x8c, 0x3d, 0x63, 0x2c, 0xe4, 0xbd, 0x16, 0xaa,
    0x97, 0xbd, 0x24, 0xdd, 0xa6, 0xbd, 0xf4, 0x20, 0xbe, 0x3d,
    0x95, 0x7e, 0x29, 0xbd, 0xd4, 0xe6, 0x0e, 0x3e, 0x3a, 0x91,
    0x52, 0xbc, 0x9e, 0x88, 0x94, 0x3d, 0x17, 0x8d, 0x13, 0x3b,
    0xa4, 0x6c, 0x31, 0x3e, 0x4c, 0xb5, 0x85, 0xbd, 0x21, 0xc7,
    0xd3, 0xbc, 0x4a, 0x89, 0xf9, 0xbc, 0x28, 0x3d, 0xde, 0x3d,
    0x3d, 0x32, 0x74, 0xbe, 0x6f, 0xe1, 0x1e, 0x3e, 0x60, 0x24,
    0x97, 0xbd, 0x8f, 0xa2, 0x71, 0x3d, 0xae, 0x61, 0x56, 0xbe,
    0xc6, 0x15, 0x35, 0x3e, 0x0d, 0x1a, 0xe6, 0xbb, 0x00, 0xd0,
    0xc3, 0x3d, 0xdc, 0x5f, 0x19, 0x3d, 0x53, 0xea, 0x7a, 0x3d,
    0x51, 0x74, 0xbc, 0x3d, 0xea, 0x51, 0x59, 0xbe, 0x15, 0xb7,
    0x1f, 0x3c, 0x0d, 0x5f, 0x02, 0x3c, 0xb5, 0x16, 0x80, 0xbd,
    0x45, 0xcd, 0xda, 0x39, 0x65, 0xfc, 0xcf, 0xbd, 0xe1, 0x3a,
    0x90, 0x3d, 0x2e, 0xde, 0x75, 0xbd, 0xc1, 0x31, 0x82, 0x3e,
    0x22, 0xdd, 0x20, 0xbe, 0x7f, 0xbb, 0x1a, 0xbe, 0xd9, 0x00,
    0x0a, 0x3e, 0x29, 0x30, 0xd9, 0x3d, 0x3b, 0x76, 0x39, 0xbd,
    0xc8, 0xcd, 0xd6, 0x3d, 0xfc, 0x50, 0x42, 0xbd, 0xd4, 0x4a,
    0x63, 0x3d, 0xcb, 0x3f, 0x20, 0xbc, 0x0a, 0x95, 0xb0, 0xbd,
    0x6f, 0x08, 0x36, 0xbc, 0x30, 0x04, 0xec, 0xbc, 0xf4, 0x4b,
    0x7a, 0xbe, 0xd7, 0x93, 0x71, 0xbd, 0x81, 0xc2, 0x05, 0x3d,
    0x1d, 0xf1, 0xb0, 0x3c, 0x7c, 0xce, 0x24, 0xbe, 0x59, 0xc0,
    0xb3, 0x3d, 0x23, 0xe7, 0x0d, 0x3e, 0x55, 0x17, 0x61, 0x3d,
    0xcb, 0x25, 0x01, 0x3e, 0xd3, 0x4a, 0xb9, 0x3d, 0xc4, 0xa1,
    0x75, 0x3d, 0xe8, 0x7d, 0xa0, 0xbb, 0xcf, 0xce, 0x06, 0x3e,
    0xfc, 0x08, 0xbc, 0xbd, 0x40, 0xc2, 0xb1, 0xbd, 0xc2, 0xc9,
    0x92, 0x3d, 0xc9, 0xe7, 0xe0, 0x3c, 0xf6, 0xb9, 0xb1, 0xbd,
    0xa4, 0x1f, 0x17, 0x3d, 0x91, 0xce, 0x00, 0xbe, 0xd3, 0x74,
    0xe5, 0xbc, 0x4a, 0xc2, 0x1e, 0xbe, 0x54, 0x4f, 0x79, 0xbd,
    0x06, 0xe7, 0x3e, 0xbd, 0x4d, 0xc7, 0x48, 0xbe, 0xd3, 0xa8,
    0x84, 0xbb, 0x34, 0x73, 0x35, 0xbe, 0x1d, 0x9f, 0x5e, 0x3e,
    0xe8, 0xfd, 0xd7, 0x3d, 0x5c, 0xfb, 0x12, 0xbd, 0xbc, 0x12,
    0x14, 0xbd, 0x10, 0x9d, 0xd5, 0xbd, 0x8e, 0x07, 0x62, 0xbe,
    0xf9, 0x29, 0xbc, 0xbd, 0x7a, 0x10, 0x69, 0x3e, 0x0c, 0x76,
    0x8c, 0x3d, 0xba, 0x43, 0x6f, 0xbc, 0x72, 0xac, 0x40, 0xba,
    0x3c, 0x7e, 0x41, 0xbd, 0x43, 0x57, 0xaa, 0x3d, 0x8f, 0x02,
    0xc7, 0xbd, 0x35, 0xc0, 0xb0, 0xbc, 0x4c, 0x4a, 0xda, 0xbd,
    0xdf, 0x2c, 0x10, 0x3e, 0x31, 0x07, 0x00, 0xbe, 0xef, 0xbc,
    0x5d, 0xbe, 0xde, 0xd8, 0x25, 0x3d, 0xcf, 0xdb, 0x51, 0x3d,
    0xd7, 0x54, 0xe4, 0x3d, 0x70, 0x35, 0x89, 0x3c, 0xda, 0x22,
    0x1d, 0xbe, 0x19, 0x5f, 0x08, 0xbc, 0x9c, 0xd2, 0x0d, 0xbe,
    0x82, 0x27, 0x2e, 0xbd, 0xb5, 0xe8, 0x5c, 0x3d, 0x71, 0xf2,
    0xd2, 0xbd, 0xa4, 0xa5, 0x9d, 0x3c, 0x1a, 0x86, 0x9d, 0x3d,
    0x34, 0xc5, 0x24, 0x3e, 0x46, 0xa2, 0x2c, 0xbd, 0x85, 0x41,
    0x42, 0xbd, 0x8d, 0x67, 0xfe, 0x3d, 0x48, 0x6d, 0xdd, 0xbc,
    0x4d, 0xab, 0x09, 0x3e, 0xec, 0xd9, 0x66, 0xbe, 0x90, 0xe0,
    0xbd, 0xbd, 0x66, 0x61, 0x19, 0xbd, 0x0a, 0x79, 0x30, 0x3e,
    0x68, 0x16, 0xb7, 0xbd, 0x9e, 0x84, 0x84, 0xbd, 0x5c, 0xd8,
    0x33, 0x3e, 0x0c, 0x27, 0x12, 0xbe, 0xc0, 0xd9, 0x51, 0x3e,
    0x01, 0x85, 0x47, 0x3c, 0xc5, 0x3b, 0xc6, 0xbd, 0xf9, 0x34,
    0x05, 0xbe, 0xe7, 0x9a, 0x00, 0xbe, 0xda, 0x6a, 0x40, 0xbc,
    0x86, 0x21, 0xf7, 0xbd, 0x09, 0x42, 0xac, 0x3d, 0xb2, 0x90,
    0x22, 0x3e, 0x48, 0xcc, 0xa2, 0x3d, 0x5d, 0xbe, 0xd5, 0x3d,
    0x8f, 0xde, 0x9f, 0x3d, 0xa5, 0x98, 0x77, 0xbd, 0x3b, 0x86,
    0xbe, 0xbd, 0xe5, 0x0c, 0x8f, 0xbc, 0xfb, 0xe0, 0x5b, 0xbd,
    0x49, 0x45, 0x55, 0x3d, 0x41, 0xb9, 0xbd, 0x3c, 0x75, 0xd1,
    0x25, 0x3e, 0xec, 0x5e, 0xe1, 0xbc, 0xb0, 0x1d, 0x35, 0xbd,
    0x1c, 0x1a, 0x87, 0x3d, 0xc2, 0xe8, 0x3e, 0x3d, 0x4b, 0xd3,
    0xcb, 0x3d, 0x69, 0xee, 0x80, 0x3d, 0x5c, 0xc0, 0xa3, 0x3d,
    0x20, 0x1f, 0x9b, 0xbc, 0x0f, 0x91, 0x0b, 0xbc, 0x53, 0x99,
    0x0f, 0xbe, 0x53, 0x56, 0xa0, 0xbd, 0xb4, 0xc2, 0xf6, 0x3d,
    0x4a, 0xde, 0x60, 0x3d, 0xd1, 0x6b, 0x07, 0xbe, 0x74, 0xf6,
    0x93, 0x3d, 0x26, 0x62, 0xa6, 0x3b, 0xcb, 0xfc, 0x08, 0x3e,
    0x35, 0xc0, 0x88, 0x3d, 0x02, 0x54, 0xab, 0xbc, 0x89, 0x76,
    0x03, 0x3e, 0x3c, 0xa5, 0xd8, 0xbc, 0x83, 0xe2, 0x90, 0xbe,
    0x29, 0xca, 0xdd, 0x3d, 0x68, 0xce, 0x34, 0xbd, 0xea, 0x3a,
    0x23, 0x3e, 0x38, 0x7a, 0x34, 0xbd, 0xe5, 0x2b, 0xa4, 0xbd,
    0xf2, 0x11, 0x9a, 0xbd, 0x1d, 0xa8, 0x74, 0xbd, 0xc9, 0xba,
    0x83, 0x3d, 0x3d, 0x69, 0x10, 0x3e, 0xbd, 0xd6, 0x98, 0x3d,
    0xc5, 0x7c, 0x05, 0xbe, 0xf2, 0x24, 0x07, 0xbc, 0x4c, 0xc7,
    0xf9, 0x3d, 0x0c, 0x58, 0x43, 0xbe, 0x93, 0xb2, 0x20, 0x3e,
    0xcc, 0xe8, 0xfd, 0x3d, 0x54, 0x96, 0xb9, 0xbd, 0x3c, 0xe1,
    0x33, 0xbd, 0x76, 0x5d, 0xa5, 0x3c, 0x6e, 0xa2, 0xe9, 0x3b,
    0x5b, 0xaa, 0x9d, 0xbd, 0xf8, 0x01, 0x90, 0x3c, 0x43, 0xaa,
    0x00, 0xbe, 0x3e, 0xc9, 0x53, 0xbe, 0x4f, 0xe0, 0xd3, 0x3c,
    0xdd, 0xe6, 0xcb, 0x3d, 0xc9, 0x79, 0xf3, 0x3d, 0x68, 0xe8,
    0x58, 0xbd, 0xfb, 0x28, 0x6b, 0xbd, 0x26, 0x72, 0x90, 0xbd,
    0x97, 0x81, 0x41, 0xbc, 0xff, 0x79, 0x06, 0xbe, 0x97, 0x76,
    0x21, 0x3e, 0x1c, 0x04, 0xee, 0xbd, 0x1e, 0x17, 0xce, 0xbd,
    0x46, 0x18, 0x65, 0x3b, 0x8e, 0x1b, 0x66, 0x3e, 0x79, 0x17,
    0xb7, 0x3d, 0x07, 0xf6, 0x21, 0x3c, 0xbf, 0x72, 0x39, 0x3e,
    0x80, 0x1e, 0x59, 0x3e, 0x66, 0x58, 0x54, 0x3d, 0xb3, 0x24,
    0xdc, 0xbd, 0xa3, 0x38, 0x03, 0x3e, 0x66, 0xe4, 0x2f, 0xbe,
    0xbe, 0x44, 0x33, 0xbe, 0xe7, 0xd5, 0x0a, 0x3d, 0x71, 0xa7,
    0x10, 0xbe, 0xca, 0x70, 0x8f, 0x3d, 0x46, 0x36, 0x0e, 0x3e,
    0x5f, 0x01, 0xb0, 0x3d, 0x50, 0x6f, 0xea, 0xbd, 0x67, 0x3f,
    0x49, 0x3c, 0x4a, 0x0e, 0x0b, 0x3d, 0xb1, 0x55, 0xac, 0x3c,
    0x06, 0x64, 0x20, 0xbe, 0x8f, 0x92, 0xc0, 0xbb, 0x48, 0xcd,
    0x92, 0xbe, 0xe6, 0x1f, 0x8d, 0xbc, 0xef, 0x98, 0xbe, 0xbd,
    0x3c, 0x2b, 0x84, 0xbd, 0x3d, 0x09, 0x94, 0x3d, 0x04, 0xd0,
    0xd2, 0xbc, 0xe2, 0xc1, 0xb6, 0xbd, 0x01, 0x82, 0x80, 0xbd,
    0xf2, 0x68, 0xd9, 0xbd, 0xcc, 0xae, 0xf2, 0x3d, 0xfc, 0x2c,
    0x24, 0xbe, 0xf0, 0xbd, 0xef, 0x3c, 0xb6, 0xa5, 0x1f, 0x3e,
    0xa1, 0xa7, 0x2d, 0x3e, 0xc6, 0x65, 0x54, 0xbe, 0xfc, 0x06,
    0xf4, 0xbc, 0x87, 0x29, 0x86, 0xbd, 0x33, 0xe7, 0xf1, 0x3c,
    0x32, 0x94, 0x03, 0xbe, 0xcb, 0x1d, 0xcd, 0x3c, 0xad, 0xaf,
    0xa4, 0x3d, 0x23, 0x30, 0xc8, 0x3d, 0x98, 0x82, 0xea, 0xbd,
    0x4f, 0xd6, 0x03, 0x3e, 0xf7, 0x60, 0xcc, 0xbd, 0x2e, 0xcd,
    0xfb, 0xbd, 0x21, 0x9f, 0xaf, 0x3c, 0x45, 0x05, 0xca, 0x3d,
    0xde, 0x8b, 0xfe, 0xbd, 0xa2, 0x0e, 0xe9, 0xbd, 0xd6, 0x75,
    0xd5, 0x3d, 0x37, 0xbc, 0x35, 0xbd, 0x58, 0x93, 0x80, 0x3d,
    0x83, 0x8d, 0x8c, 0x3e, 0x72, 0xcc, 0x0a, 0xbe, 0xd5, 0x6e,
    0x9b, 0x3d, 0x2f, 0x59, 0xa7, 0xbb, 0xb5, 0xd8, 0xa1, 0x3d,
    0x49, 0x3c, 0x24, 0xbd, 0xbb, 0x52, 0xe3, 0x3d, 0xf7, 0xfd,
    0x39, 0xbe, 0x06, 0x19, 0x14, 0x3e, 0x62, 0xce, 0x21, 0xbe,
    0xc6, 0x03, 0x02, 0xbe, 0xf2, 0xf6, 0x8b, 0xbd, 0xec, 0xce,
    0x2c, 0xbc, 0xf9, 0x22, 0x67, 0xbd, 0xe0, 0x75, 0xf0, 0x3c,
    0x15, 0x04, 0x13, 0xbe, 0x89, 0xbc, 0x34, 0xbd, 0xd9, 0x68,
    0x5a, 0xbe, 0x95, 0x5f, 0x82, 0x3d, 0xeb, 0x51, 0x4e, 0xbd,
    0xcd, 0xa1, 0x7f, 0x3d, 0x08, 0xea, 0x2b, 0x3d, 0x23, 0xf2,
    0x48, 0x3e, 0x77, 0x9e, 0x00, 0xbe, 0xac, 0x99, 0x95, 0xbd,
    0xee, 0xbd, 0xa1, 0x3d, 0xd1, 0x20, 0x0f, 0x3d, 0x72, 0x9f,
    0xdc, 0xbc, 0x1e, 0x8c, 0x8b, 0x3c, 0xbf, 0x9e, 0x98, 0xbd,
    0x96, 0x4d, 0xd2, 0x3d, 0x60, 0xbe, 0x6a, 0xbc, 0xe0, 0x44,
    0x32, 0x3d, 0x7b, 0xc5, 0xfa, 0xbb, 0x79, 0xe4, 0xd3, 0xbd,
    0x67, 0x50, 0x66, 0x3c, 0xbf, 0xd8, 0xbd, 0xbc, 0xd4, 0x7e,
    0x45, 0xbe, 0x1b, 0xd8, 0xcf, 0x3c, 0xdf, 0x88, 0x0c, 0xbe,
    0x41, 0xe3, 0x48, 0x3e, 0xf1, 0xc5, 0x69, 0x3b, 0x90, 0x8f,
    0xcd, 0xbc, 0x88, 0xcc, 0xae, 0xbd, 0xee, 0xfa, 0x90, 0x3d,
    0x65, 0xca, 0x72, 0xbd, 0xb8, 0x8a, 0x82, 0xbd, 0xb9, 0x70,
    0x28, 0x3e, 0x2d, 0xb8, 0x1f, 0x3d, 0x67, 0x74, 0x21, 0xbd,
    0x85, 0x1a, 0x51, 0x3e, 0xcd, 0xb8, 0xa7, 0x3d, 0x34, 0x3a,
    0x52, 0x3c, 0xe6, 0xd4, 0x80, 0xbe, 0xd7, 0xb7, 0x67, 0x3d,
    0x4d, 0x9e, 0xb7, 0xbd, 0x29, 0x76, 0x0e, 0x3d, 0xdf, 0x9b,
    0xab, 0x3d, 0xe4, 0x2e, 0x88, 0xbe, 0x7d, 0x50, 0x24, 0x3e,
    0xf4, 0x9a, 0x4d, 0x3d, 0xb3, 0x8d, 0x27, 0xbc, 0x9b, 0xb0,
    0xa8, 0xbd, 0x9a, 0x97, 0xa4, 0xbc, 0xf3, 0xd8, 0xd7, 0xbd,
    0x40, 0x55, 0x3f, 0xbe, 0x08, 0xa7, 0x02, 0x3e, 0x66, 0xda,
    0x54, 0xbd, 0x13, 0x2c, 0xae, 0x3c, 0x09, 0x23, 0x0b, 0x3d,
    0x12, 0x2e, 0xcb, 0xbc, 0xd7, 0xe7, 0xac, 0x3d, 0xbc, 0xe0,
    0x1b, 0x3d, 0xdd, 0xc2, 0x80, 0xbd, 0x51, 0x21, 0xe0, 0x3d,
    0x04, 0x6c, 0x86, 0xbc, 0x2c, 0x6b, 0x48, 0xbd, 0xc6, 0xcd,
    0x6c, 0xbe, 0xa7, 0x81, 0x04, 0xbe, 0xa8, 0xfd, 0xcd, 0xbd,
    0x99, 0x10, 0x4c, 0xbd, 0xe6, 0x1e, 0x14, 0xbe, 0x26, 0x06,
    0xd2, 0xbc, 0xc0, 0xa4, 0x09, 0x3e, 0xe3, 0x46, 0x9d, 0xbe,
    0xee, 0xe5, 0x59, 0x3e, 0xaa, 0x65, 0xc8, 0x3d, 0xac, 0x23,
    0xdd, 0xbd, 0x99, 0x91, 0xc4, 0x3b, 0x19, 0x2e, 0x83, 0xbe,
    0x38, 0x79, 0xa3, 0xbc, 0x70, 0xf3, 0xe8, 0xbd, 0xc0, 0x27,
    0x2f, 0x3c, 0xac, 0x32, 0x7e, 0xbc, 0xbb, 0x4d, 0x6b, 0x3e,
    0xb7, 0x90, 0x3c, 0xbd, 0xee, 0xa5, 0x2c, 0x3c, 0x1f, 0x27,
    0xa2, 0x3d, 0xb1, 0xca, 0x2f, 0xbd, 0x6e, 0xac, 0x3c, 0xbd,
    0x23, 0xbc, 0x66, 0x3b, 0x93, 0xb2, 0x19, 0x3e, 0x70, 0xb7,
    0x93, 0xbc, 0x54, 0xbd, 0x41, 0x3e, 0xae, 0xc6, 0xb4, 0xbc,
    0xe7, 0x8e, 0x8d, 0x3c, 0xc4, 0x32, 0xb1, 0x3d, 0x72, 0x34,
    0x89, 0x3d, 0x6e, 0xb7, 0x3a, 0x3d, 0xf8, 0xe6, 0xa6, 0xbd,
    0x2b, 0x95, 0x1b, 0xbe, 0x0e, 0x28, 0x85, 0x3b, 0x13, 0xe0,
    0xd0, 0x3d, 0x48, 0x88, 0xfb, 0x3c, 0x95, 0xd9, 0x9b, 0x3d,
    0x98, 0x5a, 0x24, 0x3e, 0x01, 0xdd, 0x1d, 0x3a, 0x6a, 0x00,
    0xa5, 0xbd, 0xcc, 0xc5, 0xe7, 0x3d, 0x05, 0x98, 0x76, 0xbd,
    0xb2, 0x40, 0xdb, 0x3d, 0xbd, 0x1d, 0x82, 0x3d, 0x16, 0x00,
    0x6f, 0xbd, 0x7c, 0xbf, 0xff, 0x3c, 0xc7, 0x61, 0x28, 0xbe,
    0xba, 0xe0, 0x81, 0xbe, 0x48, 0xd3, 0x10, 0x3e, 0x1c, 0xf5,
    0x7d, 0x3c, 0xb6, 0x74, 0x58, 0x3d, 0x39, 0x8d, 0xe3, 0xbd,
    0x99, 0x26, 0x75, 0xbc, 0xaf, 0x34, 0x9f, 0x3c, 0x64, 0x8f,
    0xfe, 0x3d, 0x67, 0x53, 0xab, 0x3d, 0xd1, 0x7e, 0x3c, 0x3e,
    0xfc, 0x22, 0x1d, 0x3e, 0x43, 0xc9, 0x51, 0x3d, 0xc2, 0x8c,
    0x3a, 0xbd, 0xdd, 0xdf, 0x5c, 0xbd, 0x45, 0xe4, 0x46, 0xbd,
    0x9c, 0x33, 0x92, 0x3d, 0x0d, 0x59, 0x75, 0x3d, 0x7d, 0x27,
    0xda, 0xbd, 0x66, 0x8b, 0x23, 0x3c, 0x00, 0xc0, 0xf2, 0xbc,
    0xc6, 0x40, 0x96, 0xbc, 0x28, 0xc9, 0x03, 0xbe, 0x3f, 0x8d,
    0xc7, 0x3c, 0x80, 0x3b, 0x05, 0xbc, 0xf7, 0x9f, 0x8e, 0xbe,
    0xc6, 0xf0, 0xa8, 0x3d, 0x40, 0x6a, 0x1d, 0x3e, 0x24, 0x48,
    0x2b, 0x3e, 0xb8, 0xaa, 0x2f, 0xbd, 0x3f, 0xda, 0x0f, 0xbe,
    0x16, 0xea, 0xb8, 0x3d, 0xbc, 0x63, 0x1d, 0x3d, 0xfb, 0x60,
    0xce, 0xbd, 0xc7, 0x1a, 0xc4, 0x3d, 0xc1, 0x19, 0xba, 0xbd,
    0xbf, 0x27, 0x70, 0xbd, 0x5b, 0xbe, 0xea, 0x3c, 0x02, 0x73,
    0x0f, 0x3e, 0xe0, 0x7b, 0x17, 0x3d, 0xdd, 0xeb, 0x80, 0x3d,
    0x66, 0xd0, 0xee, 0xbb, 0x8c, 0x71, 0x66, 0x3e, 0xa2, 0x79,
    0x82, 0x3b, 0x1d, 0x4e, 0x2a, 0x3d, 0x7e, 0x81, 0x30, 0x3e,
    0x03, 0xf0, 0xf9, 0xbd, 0xa5, 0xe2, 0xbc, 0xbd, 0x2b, 0xdd,
    0x02, 0xbe, 0x5a, 0xd1, 0xd4, 0xbd, 0x52, 0x9c, 0x9c, 0xbd,
    0x02, 0x93, 0x2d, 0x3e, 0xe9, 0xdd, 0x98, 0xbc, 0x87, 0xa9,
    0xdc, 0xbd, 0x14, 0xd5, 0x24, 0xbe, 0x74, 0x17, 0xc3, 0xbd,
    0xf1, 0x5b, 0x4a, 0xbc, 0x91, 0x3f, 0x2b, 0xbe, 0x20, 0xaf,
    0x26, 0xbd, 0xb7, 0x75, 0x5a, 0xbe, 0x04, 0x76, 0xbb, 0xbd,
    0x5a, 0x4e, 0x0c, 0xbd, 0x68, 0xfe, 0x19, 0x3d, 0xd2, 0x3a,
    0x9f, 0x3d, 0xfe, 0x0a, 0xcb, 0x3c, 0x93, 0x16, 0xd6, 0x3d,
    0xb1, 0xb3, 0xa6, 0x3d, 0xeb, 0x0b, 0xff, 0xbb, 0x98, 0x96,
    0x48, 0xbe, 0xc7, 0xc0, 0xfc, 0x3d, 0xb2, 0x4a, 0x18, 0x3d,
    0x0d, 0x6e, 0x8c, 0xbd, 0xaf, 0x17, 0x10, 0xbd, 0x67, 0xe8,
    0x52, 0x3e, 0x85, 0xf7, 0x70, 0x3d, 0x81, 0x44, 0xc3, 0x3d,
    0x2a, 0xa9, 0xc5, 0xbd, 0xb0, 0x17, 0x4f, 0x3e, 0xd7, 0xbf,
    0x55, 0xbd, 0xfb, 0xef, 0x6c, 0x3d, 0x9d, 0xad, 0xbc, 0xbd,
    0x32, 0x9c, 0x3f, 0x3d, 0xbb, 0xe2, 0x02, 0xbe, 0xbd, 0x67,
    0x9b, 0xbc, 0x51, 0x93, 0xf1, 0x3d, 0x55, 0x82, 0x1b, 0xbd,
    0xd1, 0x44, 0xc6, 0x3b, 0x67, 0x28, 0x59, 0x3d, 0x1a, 0x1c,
    0x18, 0x3e, 0xfa, 0xc7, 0x09, 0xbd, 0x2d, 0xa7, 0x4e, 0xbd,
    0x9e, 0x10, 0xf7, 0x3d, 0xc1, 0xfd, 0xe4, 0xbd, 0xe8, 0xba,
    0xd9, 0x3d, 0xb5, 0x08, 0x08, 0xbe, 0x88, 0x48, 0x0b, 0xbd,
    0xb3, 0x09, 0x0b, 0x3d, 0xfe, 0x9f, 0xd2, 0x3d, 0x17, 0x57,
    0x09, 0x3e, 0xd9, 0xe5, 0x7a, 0x3b, 0x03, 0xc9, 0x8e, 0xbc,
    0xb1, 0x19, 0x42, 0xbd, 0x99, 0xf0, 0x19, 0x3e, 0xf6, 0xe1,
    0x02, 0x3e, 0x1b, 0x27, 0x8e, 0x3d, 0x77, 0x5b, 0x13, 0x3e,
    0x9f, 0x49, 0x7c, 0xbd, 0x4f, 0x30, 0xe5, 0x3c, 0x06, 0x21,
    0xb8, 0x38, 0x47, 0xd0, 0xbb, 0x3d, 0x2c, 0x8f, 0x25, 0xbe,
    0x78, 0xcb, 0xca, 0xbc, 0xcb, 0x1c, 0x15, 0xbe, 0x16, 0x6d,
    0x4f, 0xbd, 0x3c, 0xbb, 0x9d, 0xbd, 0x53, 0xfc, 0xa0, 0x3d,
    0x2b, 0xf0, 0xa1, 0xbc, 0x55, 0xeb, 0x1c, 0xbe, 0xab, 0xf1,
    0x64, 0xbc, 0x3e, 0xb9, 0x39, 0x3d, 0x85, 0x63, 0x32, 0xbb,
    0x85, 0x7e, 0x13, 0xbd, 0x9f, 0xfb, 0x51, 0xbc, 0xcf, 0x67,
    0xce, 0xbd, 0x64, 0x62, 0xc0, 0x3c, 0x14, 0xc5, 0x6b, 0x3d,
    0xf9, 0xa5, 0x41, 0x3e, 0x92, 0x2a, 0x7e, 0x3d, 0x50, 0xe4,
    0xa6, 0xbd, 0x0a, 0xc2, 0x1f, 0x3e, 0x57, 0x40, 0xb9, 0x3b,
    0x66, 0x08, 0x23, 0x3c, 0xff, 0xc4, 0x18, 0xbe, 0xcf, 0x39,
    0x59, 0xbd, 0xf6, 0x6b, 0xd6, 0xbd, 0xb7, 0x86, 0xa9, 0x3d,
    0xca, 0xa0, 0x83, 0x3d, 0x93, 0x01, 0x13, 0xbd, 0x71, 0xb8,
    0x1d, 0x3d, 0x6b, 0x82, 0x4a, 0xbe, 0x12, 0x87, 0x8e, 0xbd,
    0xca, 0x50, 0x03, 0x3e, 0x21, 0xe8, 0x7b, 0xbd, 0xac, 0x20,
    0xee, 0xbd, 0xa1, 0xed, 0x4b, 0xbe, 0xfa, 0xaf, 0xb7, 0x3d,
    0x68, 0xf2, 0x0c, 0xbe, 0xe1, 0x39, 0x35, 0x3d, 0xb1, 0x11,
    0x80, 0xbd, 0x1a, 0x52, 0xd1, 0xbc, 0x15, 0x52, 0x97, 0x3e,
    0x86, 0x13, 0xf8, 0x3c, 0x1c, 0x76, 0x29, 0xbc, 0x83, 0xed,
    0x56, 0x3b, 0x9b, 0x9d, 0xaa, 0x3d, 0x59, 0xd3, 0x27, 0x3d,
    0x67, 0x3a, 0x82, 0x3d, 0x19, 0x1f, 0x47, 0x3d, 0xd6, 0xef,
    0xb4, 0x3c, 0xc4, 0x9d, 0x76, 0x3b, 0xd9, 0x7e, 0xbe, 0xbd,
    0x3b, 0x1a, 0xfc, 0xbc, 0xe9, 0xdb, 0xfc, 0xbc, 0xcf, 0x73,
    0x1b, 0xbd, 0xf8, 0x4d, 0x32, 0x3d, 0xb1, 0xab, 0xd0, 0x3d,
    0x8c, 0x61, 0x34, 0xbe, 0xe3, 0x66, 0x92, 0x3d, 0xf6, 0x8e,
    0x53, 0xbc, 0xcd, 0xf1, 0xf6, 0x3d, 0xac, 0xa2, 0xf9, 0x3d,
    0x24, 0x74, 0x19, 0x3e, 0xe9, 0x0f, 0x9d, 0xbd, 0xf4, 0xb3,
    0xad, 0x3d, 0xf6, 0x07, 0xf1, 0xbd, 0x78, 0x82, 0x0c, 0xbe,
    0xe1, 0x54, 0x0c, 0x3e, 0xc5, 0x2d, 0x2d, 0xbe, 0xda, 0x0b,
    0xea, 0x3d, 0xfd, 0xd0, 0xe5, 0x3d, 0x92, 0xb8, 0xd1, 0xbd,
    0xc0, 0x4d, 0x45, 0x3e, 0xa4, 0xc7, 0xb1, 0xbc, 0xfd, 0x5d,
    0x2f, 0xbd, 0x34, 0x6c, 0xc3, 0x3d, 0x7f, 0x59, 0xea, 0x3d,
    0x14, 0x49, 0x5d, 0xbe, 0x4c, 0x8e, 0xba, 0xbd, 0xeb, 0x2d,
    0x1b, 0xbc, 0x86, 0xb5, 0xe4, 0xbb, 0x31, 0x59, 0xa2, 0x3d,
    0x11, 0xc4, 0x0d, 0x3e, 0x63, 0x88, 0x3c, 0x3e, 0xb1, 0x05,
    0xe7, 0x3c, 0x82, 0xd4, 0xbd, 0xbd, 0x23, 0xfe, 0x9e, 0xbd,
    0x25, 0xc9, 0x28, 0x3c, 0xd3, 0xb8, 0x5a, 0xbc, 0x8b, 0x46,
    0xf2, 0xbb, 0x38, 0xcf, 0x1f, 0xbe, 0x54, 0x27, 0x12, 0xbb,
    0xd6, 0x0a, 0x18, 0xbe, 0x49, 0xf2, 0xca, 0xbd, 0x57, 0xcb,
    0x78, 0x3d, 0x10, 0x04, 0x05, 0xbe, 0xec, 0x86, 0x1e, 0x3e,
    0x5c, 0xca, 0x39, 0x3d, 0x47, 0xfc, 0x5c, 0xbd, 0x7d, 0x25,
    0xc3, 0xbd, 0x01, 0xed, 0x2c, 0x3c, 0x72, 0x2d, 0x0f, 0xbe,
    0x09, 0xda, 0x74, 0x3c, 0x68, 0x0f, 0xc6, 0xbd, 0xbe, 0x48,
    0xbf, 0xbd, 0x82, 0xf0, 0xac, 0xbd, 0xd2, 0xf2, 0x9c, 0x3c,
    0x5b, 0xf2, 0xf2, 0x3d, 0x0c, 0x2d, 0xad, 0x3e, 0xfa, 0x35,
    0x12, 0xbe, 0x19, 0x7c, 0xf9, 0x3b, 0x88, 0xc8, 0x29, 0xbc,
    0xa1, 0x84, 0xaa, 0x3d, 0xcf, 0x43, 0xf2, 0x3d, 0x0e, 0x8d,
    0xf4, 0x3c, 0x16, 0x99, 0xcd, 0xbd, 0xd5, 0x18, 0xef, 0x3d,
    0xd3, 0xbc, 0xce, 0xbc, 0xc3, 0x59, 0xca, 0xbd, 0xc9, 0x1b,
    0xa2, 0x3d, 0x4a, 0x4a, 0xca, 0x3c, 0xa9, 0xf3, 0xf0, 0xbd,
    0x80, 0x16, 0xbb, 0xbd, 0x62, 0xc5, 0x05, 0xbd, 0x61, 0x01,
    0x09, 0x3d, 0xc5, 0x17, 0xe3, 0x3d, 0xb9, 0x9d, 0x2d, 0x3d,
    0x3f, 0xb5, 0xef, 0xbc, 0x63, 0x91, 0xbe, 0x3d, 0x48, 0x1f,
    0x3c, 0x3e, 0x07, 0xfb, 0x89, 0x3c, 0x28, 0x45, 0x90, 0xbd,
    0xdd, 0xaf, 0x74, 0x3e, 0x85, 0xe5, 0x3f, 0xbd, 0x82, 0xc6,
    0xa5, 0xbc, 0x7e, 0xb1, 0x58, 0xbe, 0x4d, 0x7f, 0x83, 0xbc,
    0xab, 0xb1, 0x9e, 0x3d, 0xb4, 0x3d, 0xc3, 0xbd, 0x17, 0xed,
    0x4e, 0xbd, 0xd8, 0x74, 0x25, 0x3d, 0xa0, 0xaf, 0xcb, 0xbd,
    0x64, 0x8a, 0x0a, 0xbe, 0xa3, 0x4a, 0xaa, 0xbd, 0xfc, 0x89,
    0x14, 0xbc, 0x59, 0x61, 0x4d, 0xbe, 0x11, 0x0b, 0xcb, 0xbd,
    0x43, 0xae, 0xf3, 0xbd, 0x76, 0x1f, 0xa7, 0xbc, 0xb3, 0xe4,
    0x1f, 0xbe, 0x7f, 0x69, 0x97, 0x3d, 0xbf, 0x75, 0x0c, 0xbd,
    0x47, 0x3b, 0x11, 0xbe, 0xe0, 0xdc, 0xf2, 0x3c, 0x19, 0x9e,
    0x46, 0x3e, 0xfa, 0x39, 0xfa, 0x3d, 0x98, 0x6e, 0x93, 0x3d,
    0xe5, 0x2d, 0x01, 0x3e, 0x8f, 0x50, 0xee, 0xbd, 0xa1, 0xf7,
    0x8a, 0x3d, 0xad, 0x68, 0xe9, 0x3d, 0x6b, 0x98, 0xf3, 0x3d,
    0xa6, 0xba, 0xf7, 0x3d, 0xc7, 0x50, 0x22, 0xbd, 0xeb, 0x08,
    0x29, 0x3e, 0x70, 0xa9, 0x6a, 0xbd, 0xc8, 0xc3, 0xd6, 0x3d,
    0xaf, 0x32, 0x71, 0x3d, 0xeb, 0x02, 0x12, 0xbc, 0x84, 0xf4,
    0x30, 0xbd, 0xdf, 0xec, 0x9b, 0xbd, 0x7b, 0xb4, 0x89, 0xbd,
    0x09, 0x44, 0x0d, 0xbc, 0xe3, 0x64, 0xc7, 0x3d, 0x86, 0x1d,
    0x74, 0xbe, 0x3f, 0xde, 0x5e, 0x3e, 0xda, 0x03, 0x7f, 0x3d,
    0x98, 0x47, 0xae, 0xbc, 0x91, 0x8a, 0xbd, 0x3c, 0x3b, 0xe9,
    0x8d, 0x3e, 0x34, 0x7d, 0xf8, 0xbd, 0xa0, 0xbe, 0xfa, 0xbd,
    0xd5, 0x29, 0xa0, 0x3d, 0x0d, 0x3e, 0xd4, 0x3d, 0x55, 0x45,
    0x8c, 0x3d, 0xc9, 0xd8, 0x80, 0x3e, 0x1b, 0xe8, 0x9d, 0x3e,
    0x03, 0x99, 0xf4, 0xbe, 0x46, 0xc7, 0x39, 0x3f, 0x98, 0x04,
    0xca, 0x3e, 0xba, 0x16, 0xa2, 0x3d, 0x2e, 0x1f, 0x28, 0x3e,
    0x83, 0xae, 0xba, 0x3d, 0xf8, 0x45, 0xad, 0xbe, 0x16,
    0x0e, 0xc1, 0xbd, 0xb8, 0x04, 0x37, 0x3d, 0xd3, 0xce,
    0xe5, 0x3e, 0xdf, 0xf4, 0x14, 0xbe, 0xfc, 0x23, 0x60,
    0x3e, 0xde, 0x9c, 0xbc, 0xbe, 0xe1, 0x68, 0xc9, 0x3e,
    0x97, 0x33, 0x56, 0xbe, 0x43, 0x6a, 0x49, 0xbe, 0xe0,
    0x03, 0x20, 0xbf, 0xa3, 0x85, 0x0c, 0x3f, 0x9e, 0x68,
    0xb6, 0x3e, 0x88, 0x58, 0x30, 0x3f, 0xd1, 0x0a, 0x02,
    0xbf, 0x14, 0xf5, 0x73, 0xbd, 0x04, 0xf5, 0x73, 0x3d
  };

  return AI_HANDLE_PTR(s_network_weights);

}

