#include "network_data.h"

ai_handle ai_network_data_weights_get(void)
{

  AI_ALIGNED(4)
  static const ai_u8 s_network_weights[ 5400 ] = {
    0x47, 0xac, 0xd5, 0x3c, 0xae, 0xbb, 0xde, 0xbc, 0x7c, 0xc0,
    0xa3, 0xbb, 0xf8, 0x9d, 0xaa, 0x3d, 0x36, 0xa6, 0x62, 0xbd,
    0xdb, 0x6a, 0x14, 0x3d, 0x68, 0xa6, 0x06, 0xbd, 0x4d, 0xab,
    0xcb, 0xbd, 0x9e, 0xa7, 0xa6, 0xbd, 0xa2, 0x12, 0x86, 0xbd,
    0xf7, 0xe1, 0x03, 0x3e, 0x2f, 0x35, 0xd5, 0x3c, 0x1f, 0x03,
    0xe3, 0x3d, 0x5f, 0x4a, 0x68, 0xbd, 0x0b, 0xa1, 0x90, 0xbd,
    0xd6, 0xc1, 0x27, 0x3c, 0x2b, 0x9e, 0x06, 0xbe, 0x56, 0xcd,
    0x94, 0x3d, 0xb1, 0xa0, 0x22, 0x3d, 0x2e, 0xac, 0x5b, 0xbb,
    0x32, 0x03, 0x9b, 0x3d, 0xb7, 0xb6, 0x03, 0xbe, 0xf4, 0x9a,
    0x1a, 0x3d, 0x8f, 0xac, 0xaa, 0xbd, 0x5e, 0xd3, 0x39, 0x3d,
    0x72, 0x90, 0x30, 0xbd, 0xf4, 0x2f, 0x41, 0xbd, 0x1b, 0xa3,
    0x27, 0xbd, 0xad, 0xef, 0x81, 0x3d, 0xd9, 0xb2, 0xc7, 0x3d,
    0xc3, 0x72, 0xa3, 0x3d, 0x87, 0xda, 0x36, 0xbe, 0x11, 0x47,
    0xb4, 0x3c, 0xe2, 0xa0, 0xfe, 0xbd, 0xf4, 0xa0, 0x87, 0x3c,
    0x1b, 0xd1, 0x8a, 0xbd, 0x2c, 0xe7, 0x81, 0x3d, 0xc5, 0xfb,
    0x3f, 0xbe, 0x8b, 0xfe, 0xa6, 0x3d, 0x5e, 0x0d, 0xa2, 0xbd,
    0x8d, 0xec, 0xbc, 0x3d, 0xa0, 0xbd, 0xa8, 0x3c, 0xd4, 0x90,
    0xe1, 0xbc, 0x36, 0x3a, 0x2c, 0xbd, 0x37, 0x20, 0x82, 0x3d,
    0x85, 0x26, 0xec, 0xbd, 0xfd, 0xd9, 0xc2, 0x3b, 0xb0, 0xa7,
    0x1b, 0x3d, 0xfd, 0x02, 0xb0, 0xbd, 0xf5, 0x1d, 0xda, 0xbc,
    0xed, 0x14, 0xb3, 0xbb, 0x2f, 0x69, 0x34, 0x3d, 0xfe, 0xba,
    0x43, 0x3d, 0x2d, 0x01, 0x98, 0x3d, 0x42, 0x84, 0x44, 0x3d,
    0x93, 0xae, 0xe5, 0xbd, 0x66, 0xfe, 0x14, 0xbd, 0xbe, 0x5b,
    0x93, 0x3d, 0x38, 0xc7, 0xc7, 0xbd, 0xc4, 0xd9, 0x00, 0x3c,
    0x5a, 0xc0, 0xb9, 0x3d, 0xd1, 0xd5, 0xcf, 0xbb, 0x99, 0xe7,
    0x1b, 0xbd, 0xd4, 0xde, 0x46, 0x3d, 0x99, 0x79, 0x72, 0xbc,
    0x46, 0xdb, 0x9e, 0x3d, 0x72, 0x62, 0xcf, 0xbd, 0xe6, 0x13,
    0x59, 0x3b, 0x95, 0x7a, 0x1f, 0xbe, 0xa2, 0x50, 0x81, 0x3d,
    0xed, 0x75, 0xa4, 0x3d, 0xee, 0x6d, 0x1e, 0x3d, 0xb0, 0x9a,
    0x2d, 0xbd, 0x85, 0x26, 0x84, 0xbd, 0x60, 0xdc, 0x2d, 0x3d,
    0x6f, 0x1a, 0x13, 0xbe, 0xc4, 0x62, 0x4c, 0xbd, 0xb7, 0xff,
    0xa0, 0xbd, 0x22, 0xad, 0x19, 0x3d, 0xa0, 0xe5, 0x9c, 0xbc,
    0x65, 0x24, 0x90, 0xbd, 0x75, 0x0c, 0x79, 0xbd, 0x5a, 0x8e,
    0xf2, 0xbb, 0x40, 0x04, 0x3e, 0xbc, 0xc7, 0xbb, 0x2d, 0xbe,
    0x2c, 0xc9, 0x16, 0x3d, 0xa9, 0x5e, 0xb2, 0x3d, 0xd2, 0x20,
    0x09, 0xbd, 0x48, 0x1d, 0xd6, 0xbd, 0xf7, 0x5a, 0x82, 0xbd,
    0x3b, 0xcb, 0xda, 0x3d, 0x6c, 0x69, 0x0e, 0x3e, 0x5f, 0xfd,
    0x2c, 0xbe, 0xec, 0x33, 0x4d, 0x3d, 0x9c, 0x61, 0x18, 0xbd,
    0xb8, 0x5e, 0xa3, 0xbd, 0x0d, 0xc5, 0xa2, 0x3c, 0xc1, 0x75,
    0xcb, 0x3b, 0xfd, 0x67, 0x4d, 0x3c, 0xcc, 0x4d, 0x6d, 0xbd,
    0xfd, 0x7a, 0x10, 0xbd, 0xd6, 0xae, 0x25, 0xbc, 0xcd, 0x4c,
    0xc9, 0x3d, 0x8c, 0xb6, 0x87, 0x3d, 0x63, 0xdf, 0xf3, 0xbd,
    0xa6, 0xea, 0xd4, 0xbd, 0x80, 0x49, 0x13, 0x3e, 0xdf, 0x9a,
    0x90, 0xbd, 0x2e, 0xad, 0x07, 0xbe, 0xcc, 0x88, 0x96, 0xbd,
    0xa4, 0x7b, 0xfb, 0x3d, 0x34, 0xc9, 0xfc, 0xbd, 0x67, 0x90,
    0xba, 0xbd, 0x47, 0xd9, 0x75, 0xbd, 0x2b, 0x81, 0xe4, 0xbc,
    0xe6, 0xca, 0xb5, 0xbc, 0x30, 0xfa, 0xc4, 0xbd, 0xe0, 0xef,
    0xd1, 0xbc, 0xa9, 0x56, 0x0b, 0x3e, 0xe5, 0xb4, 0x83, 0x3d,
    0x86, 0x07, 0x7f, 0x3d, 0x25, 0xa9, 0x25, 0xbd, 0x81, 0xee,
    0xae, 0xbd, 0xf6, 0x32, 0xcb, 0xbc, 0xa4, 0xda, 0xe3, 0xbc,
    0x00, 0x62, 0x81, 0xbd, 0x55, 0xdf, 0x43, 0xbc, 0x1d, 0x05,
    0x8f, 0xbc, 0x6d, 0x41, 0xf1, 0xbc, 0x68, 0xe2, 0xc3, 0x3d,
    0x08, 0xee, 0x60, 0xbc, 0x5b, 0x4b, 0xf0, 0xbd, 0xe6, 0x03,
    0x8d, 0xbd, 0x90, 0x88, 0x9b, 0x3d, 0x8a, 0x95, 0x4d, 0xbc,
    0x98, 0xa3, 0x58, 0x3d, 0x2f, 0x16, 0xbf, 0x3d, 0x1f, 0x70,
    0xbc, 0xbc, 0xe8, 0xc8, 0xad, 0xbd, 0xb5, 0x16, 0x3d, 0xbd,
    0xae, 0xf2, 0xae, 0x3d, 0xdc, 0xd4, 0x13, 0x3d, 0xdb, 0x03,
    0xaa, 0xbd, 0x66, 0x7b, 0x21, 0x3d, 0xb7, 0xb1, 0xd7, 0x3c,
    0xd8, 0xe0, 0x2a, 0x3d, 0xc7, 0xc2, 0xa4, 0xbd, 0x4b, 0x83,
    0xd2, 0x3c, 0x39, 0xdc, 0x99, 0x3b, 0xa8, 0x63, 0xed, 0x3c,
    0xc7, 0x69, 0x20, 0x3d, 0x16, 0xb8, 0x41, 0xbd, 0xad, 0x07,
    0xec, 0xbb, 0xfe, 0x1c, 0x60, 0x3d, 0x9e, 0xc0, 0x8b, 0xbb,
    0x05, 0x90, 0x58, 0x3c, 0x59, 0xf3, 0x52, 0x3c, 0xff, 0x19,
    0xaf, 0xbd, 0x66, 0x44, 0xbf, 0x3d, 0x5b, 0xfb, 0x01, 0xbd,
    0x65, 0x71, 0x3a, 0xbd, 0x60, 0x2d, 0xbe, 0xbd, 0x37, 0x6c,
    0xec, 0xbd, 0x17, 0xee, 0xf9, 0x3d, 0xfa, 0x87, 0x1a, 0xbd,
    0x9c, 0x11, 0xee, 0x3c, 0x41, 0xf1, 0xa3, 0xbd, 0x6a, 0x35,
    0x8b, 0xbc, 0x6f, 0xca, 0x91, 0xbd, 0xdd, 0x22, 0x1c, 0x3e,
    0xca, 0x02, 0xbe, 0x3d, 0x67, 0xf1, 0xfe, 0xbd, 0x14, 0xbd,
    0xa3, 0x3c, 0x29, 0xa1, 0xd8, 0x3c, 0x2b, 0xb1, 0xba, 0xbd,
    0xe8, 0xd4, 0x1c, 0xbd, 0x98, 0xa9, 0xd1, 0x3c, 0x38, 0x04,
    0xd9, 0xbd, 0x9e, 0x93, 0x04, 0x3d, 0x9d, 0xf5, 0xb3, 0xbd,
    0xc4, 0x8b, 0x18, 0x3e, 0xfa, 0xe1, 0x25, 0xbd, 0xac, 0x30,
    0xb2, 0xbd, 0xd1, 0x37, 0xa4, 0xbd, 0xda, 0x83, 0xa6, 0xbc,
    0x9d, 0x80, 0x5b, 0x3c, 0xb7, 0x19, 0xcf, 0x3d, 0x67, 0x2a,
    0xa2, 0x3c, 0x6d, 0xef, 0x58, 0xbd, 0xa7, 0x05, 0x9b, 0x3b,
    0x4e, 0x3c, 0xb8, 0x3d, 0x76, 0x0b, 0x20, 0xbd, 0xb5, 0xa3,
    0x40, 0x3d, 0x70, 0x89, 0x7d, 0xbb, 0x55, 0xaa, 0xdf, 0xbd,
    0xd2, 0x29, 0x86, 0xbd, 0x76, 0xb1, 0xbe, 0x3d, 0x62, 0x12,
    0x35, 0x3d, 0xc1, 0x77, 0x1b, 0xbe, 0xcb, 0x9a, 0x3b, 0x3d,
    0x78, 0x08, 0x02, 0x3c, 0xdc, 0xa3, 0x9d, 0xbc, 0xec, 0x3a,
    0xc6, 0x3b, 0xc7, 0x6f, 0x07, 0x3d, 0x0a, 0x42, 0x34, 0xbc,
    0xf1, 0x65, 0x0e, 0x3c, 0xef, 0xc0, 0xfd, 0x3b, 0x54, 0x45,
    0x26, 0x3b, 0xc7, 0xc2, 0xd1, 0x3c, 0xaa, 0xfb, 0xb6, 0xbd,
    0xe2, 0x36, 0x5b, 0x3c, 0xe3, 0xb3, 0xce, 0x3d, 0xb6, 0x16,
    0x89, 0xbd, 0x3d, 0x58, 0x86, 0x3d, 0x04, 0xc5, 0x6a, 0xbc,
    0xd1, 0xbc, 0x1f, 0xbe, 0x2f, 0x62, 0x9b, 0x3d, 0xd9, 0xd7,
    0xb4, 0x3d, 0xca, 0x6e, 0xd8, 0xbd, 0xc5, 0x78, 0x2c, 0x3d,
    0xba, 0x37, 0xb5, 0xbd, 0x1a, 0xd2, 0x18, 0x3d, 0xb6, 0x76,
    0x46, 0x3d, 0xdc, 0xad, 0x8b, 0xbd, 0x94, 0xb8, 0xfb, 0x37,
    0x67, 0x65, 0x27, 0x3d, 0xfd, 0xcf, 0xe1, 0x3c, 0x1f, 0xfe,
    0x94, 0xbd, 0xd8, 0x0e, 0x3a, 0x3d, 0xda, 0x1e, 0xe2, 0x3d,
    0xd2, 0xc7, 0xcd, 0xbc, 0xac, 0x79, 0x0f, 0x3d, 0xa8, 0x5c,
    0x40, 0xbd, 0xd2, 0xc9, 0xe7, 0xbc, 0x58, 0x80, 0xbe, 0xbd,
    0x28, 0xac, 0x61, 0x3d, 0x6c, 0x37, 0xa6, 0x3b, 0x4f, 0xc8,
    0x09, 0xbd, 0x22, 0x13, 0x28, 0xbd, 0x7c, 0x32, 0xb0, 0x3d,
    0x50, 0x51, 0x85, 0x3d, 0xf4, 0x00, 0x69, 0xbd, 0x22, 0x1b,
    0xf0, 0x3c, 0xfb, 0x99, 0x29, 0x3d, 0x17, 0x86, 0x75, 0xbc,
    0xbf, 0x2b, 0xa1, 0xbb, 0xbc, 0xa8, 0x13, 0x3c, 0x85, 0xf1,
    0x9f, 0xbd, 0xeb, 0x76, 0xac, 0xbd, 0xcb, 0xba, 0x9c, 0xbb,
    0xa5, 0xc4, 0xb1, 0x3d, 0x3f, 0x5d, 0xca, 0xbd, 0x80, 0x1e,
    0x4e, 0x3d, 0xbf, 0x9e, 0x9b, 0xbd, 0x4f, 0x7f, 0xa6, 0x3d,
    0x09, 0x1b, 0x0b, 0x3d, 0x1c, 0x30, 0xb3, 0x3a, 0x56, 0x5b,
    0xe1, 0xbd, 0x60, 0x1f, 0xe6, 0x3c, 0xb1, 0xa2, 0xe4, 0x3d,
    0xc7, 0x5e, 0x7f, 0x3d, 0x20, 0x60, 0xe9, 0xbd, 0x9f, 0x9d,
    0x99, 0x3c, 0x10, 0x8a, 0xa7, 0x3c, 0xff, 0x74, 0x01, 0x3d,
    0xf8, 0x8f, 0xc5, 0xbd, 0x37, 0x48, 0xd6, 0xbc, 0xdc, 0xdc,
    0xac, 0xbd, 0xd6, 0x1b, 0xbe, 0xbc, 0x4d, 0xe3, 0xc1, 0xbd,
    0x33, 0xdf, 0xf7, 0xbc, 0xe3, 0x32, 0x40, 0x3d, 0xcf, 0x15,
    0xd4, 0x3d, 0x48, 0x59, 0xc7, 0xbd, 0x7e, 0x40, 0x88, 0xbd,
    0x6d, 0xa0, 0x08, 0xbd, 0xe4, 0xc3, 0x8c, 0x3d, 0xc0, 0xfe,
    0x39, 0x3d, 0xb1, 0x3c, 0xed, 0xba, 0x78, 0xdc, 0x59, 0x3d,
    0x27, 0xd0, 0xbe, 0xbd, 0x1e, 0x84, 0x1c, 0x3d, 0xb7, 0x73,
    0x98, 0x3d, 0x51, 0x75, 0xef, 0xbd, 0x26, 0x4d, 0x91, 0xbc,
    0xf3, 0x09, 0xf2, 0x3c, 0xf8, 0xe2, 0x67, 0x3d, 0x39, 0x03,
    0xd3, 0xbd, 0x32, 0x4e, 0x8f, 0xbd, 0x60, 0xfc, 0x17, 0x3d,
    0x67, 0x5a, 0x87, 0xbd, 0x0e, 0x1c, 0xa2, 0xbc, 0x28, 0x32,
    0x6e, 0x3d, 0xbc, 0x11, 0xc3, 0xbc, 0x17, 0x17, 0x48, 0xbd,
    0x0f, 0x90, 0x36, 0xbd, 0xe7, 0x64, 0xbd, 0xbc, 0xf5, 0x85,
    0x0c, 0xbd, 0x5c, 0x40, 0x0e, 0x3e, 0x17, 0xe7, 0xab, 0xbd,
    0xee, 0xb9, 0x66, 0xbd, 0x20, 0xea, 0xa6, 0x3c, 0x47, 0x91,
    0x96, 0x3d, 0xd1, 0x23, 0x5b, 0xbd, 0x7b, 0xdb, 0xef, 0xbb,
    0xd9, 0x32, 0xd6, 0xbd, 0x08, 0xf4, 0x7a, 0xbd, 0x42, 0xee,
    0x00, 0x3e, 0x52, 0xfe, 0xbe, 0x3d, 0x98, 0xac, 0xa8, 0xbd,
    0x29, 0xae, 0x68, 0xbd, 0x87, 0x4a, 0x5e, 0xbb, 0x19, 0x21,
    0x94, 0xbd, 0x8b, 0x50, 0x7f, 0xbb, 0xd2, 0xca, 0x20, 0x3d,
    0xf5, 0x72, 0x99, 0x3c, 0xcd, 0x55, 0x46, 0x3d, 0x93, 0x04,
    0x0e, 0x3b, 0x1a, 0x82, 0x70, 0xbd, 0x23, 0xe4, 0x81, 0xbd,
    0x4d, 0x45, 0xa1, 0xbd, 0x94, 0x1d, 0x04, 0x3e, 0x6d, 0x9b,
    0xfc, 0x3a, 0xe7, 0xf4, 0xf4, 0xbd, 0x02, 0xea, 0x4d, 0x3d,
    0xc5, 0xcd, 0x6a, 0x3d, 0x8d, 0xfa, 0x66, 0xbc, 0xca, 0x48,
    0xc7, 0x3c, 0xad, 0xcb, 0xde, 0xbc, 0xe6, 0x16, 0xcd, 0x3d,
    0x61, 0xb8, 0xc9, 0x3c, 0x36, 0x54, 0x08, 0xbe, 0x4e, 0xb6,
    0xf5, 0x3c, 0x8b, 0xb0, 0x67, 0xbd, 0x15, 0x2b, 0xd4, 0x3d,
    0x57, 0x36, 0xc6, 0xbd, 0xb7, 0x14, 0x29, 0x3d, 0xae, 0x8c,
    0x8b, 0xbb, 0xee, 0x46, 0x9b, 0x3d, 0xbb, 0x93, 0x96, 0xbd,
    0xa8, 0x58, 0x13, 0x3d, 0x13, 0x9c, 0x82, 0x3c, 0xbf, 0x37,
    0x20, 0xbe, 0x60, 0x15, 0x30, 0xbd, 0x7c, 0x85, 0x92, 0xbc,
    0x17, 0x4f, 0x7d, 0xbc, 0x19, 0x6b, 0x33, 0x3d, 0xac, 0x83,
    0xd0, 0xbd, 0xc6, 0xf0, 0xae, 0x3d, 0x24, 0xfa, 0xd2, 0x3d,
    0x32, 0x09, 0xea, 0xbd, 0x28, 0x91, 0x26, 0xbd, 0x5a, 0xf7,
    0x31, 0x3d, 0x18, 0xac, 0xea, 0x3d, 0x3a, 0x0c, 0xb8, 0xbd,
    0xcc, 0xb0, 0x25, 0xbd, 0xfb, 0x2e, 0xa9, 0x3d, 0xe7, 0xe3,
    0x48, 0xbc, 0x97, 0x5b, 0xe9, 0xbc, 0xa2, 0xaa, 0x9a, 0xbd,
    0x6d, 0x8f, 0x9f, 0x3d, 0x5f, 0x20, 0x94, 0xbd, 0xbc, 0x20,
    0x56, 0xbd, 0x76, 0x0d, 0xcb, 0xba, 0x4b, 0x9e, 0xef, 0xbc,
    0xe4, 0xd1, 0xae, 0xbc, 0x0d, 0x59, 0x40, 0xbd, 0xb3, 0x19,
    0xad, 0xbc, 0xbf, 0x99, 0xb8, 0x3c, 0xf0, 0x63, 0x07, 0xbd,
    0x34, 0x2f, 0x58, 0x3d, 0x1c, 0x8d, 0xda, 0xbd, 0x7c, 0x22,
    0x0e, 0xbb, 0x36, 0x21, 0xa6, 0xbd, 0xc4, 0x9a, 0x94, 0x3d,
    0x73, 0xcd, 0x5b, 0xbd, 0x28, 0x62, 0x41, 0x3d, 0xc8, 0x5f,
    0xad, 0x3d, 0xd7, 0x38, 0xc0, 0x3c, 0xad, 0x83, 0x91, 0x3c,
    0xa0, 0x5d, 0x2a, 0xbd, 0x35, 0xe3, 0x3c, 0x3c, 0xe1, 0xe9,
    0xd8, 0xbd, 0x1c, 0xdf, 0x5b, 0xbd, 0x0c, 0x3b, 0x49, 0x3f,
    0x3d, 0x19, 0x20, 0x3f, 0x39, 0x8a, 0xb8, 0xbe, 0xfc, 0x57,
    0xe9, 0x3d, 0x71, 0x22, 0xcb, 0x3f, 0x1d, 0x2c, 0x30, 0xbf,
    0xf3, 0xf2, 0xdd, 0xbe, 0x98, 0xbf, 0xfb, 0xbe, 0x64, 0xcc,
    0x20, 0xc0, 0xb4, 0x6f, 0xde, 0x3d, 0x84, 0xe8, 0xdf, 0x3f,
    0x52, 0xeb, 0x11, 0xbc, 0x90, 0x66, 0x11, 0xc0, 0x26, 0x83,
    0xf5, 0xbf, 0xfd, 0xcf, 0x49, 0x3d, 0xc2, 0xa1, 0xb2, 0xbe,
    0x50, 0xab, 0xd1, 0xbf, 0xfb, 0xc4, 0xe1, 0xbc, 0xea, 0xef,
    0x00, 0xc0, 0x8e, 0x49, 0x87, 0x3f, 0xe7, 0x40, 0x0f, 0xc0,
    0x1f, 0xfd, 0x68, 0x3d, 0x00, 0xbd, 0x7d, 0x3f, 0x89, 0xca,
    0x76, 0x3f, 0x72, 0x06, 0xbf, 0xbe, 0xd7, 0x8e, 0xbd, 0xbe,
    0x3c, 0x17, 0xbc, 0xbe, 0xa2, 0x9f, 0xba, 0xbe, 0x07, 0x28,
    0xb9, 0xbe, 0x6c, 0xb0, 0xb7, 0xbe, 0x02, 0xd4, 0xb6, 0xbe,
    0x36, 0xc1, 0xb4, 0xbe, 0x9c, 0x49, 0xb3, 0xbe, 0x01, 0xd2,
    0xb1, 0xbe, 0xb0, 0xf2, 0xaf, 0xbe, 0xcb, 0xe2, 0xae, 0xbe,
    0x30, 0x6b, 0xad, 0xbe, 0x96, 0xf3, 0xab, 0xbe, 0xfb, 0x7b,
    0xaa, 0xbe, 0x26, 0x5d, 0xa9, 0xbe, 0xc5, 0x8c, 0xa7, 0xbe,
    0x2a, 0x15, 0xa6, 0xbe, 0x90, 0x9d, 0xa4, 0xbe, 0xf5, 0x25,
    0xa3, 0xbe, 0x5a, 0xae, 0xa1, 0xbe, 0xbf, 0x36, 0xa0, 0xbe,
    0x79, 0xb7, 0x9e, 0xbe, 0xe3, 0x46, 0x9d, 0xbe, 0xef, 0xcf,
    0x9b, 0xbe, 0x54, 0x58, 0x9a, 0xbe, 0xa5, 0x91, 0x98, 0xbe,
    0x1e, 0x69, 0x97, 0xbe, 0x83, 0xf1, 0x95, 0xbe, 0xa0, 0x23,
    0x94, 0xbe, 0x48, 0xcd, 0x92, 0xbe, 0x83, 0xe2, 0x90, 0xbe,
    0x18, 0x13, 0x90, 0xbe, 0x84, 0x9b, 0x8e, 0xbe, 0xe3, 0x23,
    0x8d, 0xbe, 0x48, 0xac, 0x8b, 0xbe, 0x87, 0xe9, 0x89, 0xbe,
    0xe4, 0x2e, 0x88, 0xbe, 0x77, 0x45, 0x87, 0xbe, 0xdd, 0xcd,
    0x85, 0xbe, 0x12, 0x55, 0x84, 0xbe, 0x19, 0x2e, 0x83, 0xbe,
    0xcb, 0xc2, 0x81, 0xbe, 0xec, 0xb9, 0x80, 0xbe, 0xad, 0xef,
    0x7c, 0xbe, 0xfa, 0xe7, 0x79, 0xbe, 0x62, 0xc9, 0x76, 0xbe,
    0xb0, 0x96, 0x74, 0xbe, 0x45, 0x24, 0x71, 0xbe, 0xc6, 0xcd,
    0x6c, 0xbe, 0xe5, 0x5c, 0x6b, 0xbe, 0x1a, 0xa5, 0x67, 0xbe,
    0x56, 0xc6, 0x64, 0xbe, 0x64, 0x17, 0x62, 0xbe, 0x20, 0x8b,
    0x5f, 0xbe, 0x02, 0x83, 0x5d, 0xbe, 0x59, 0xa9, 0x59, 0xbe,
    0x6b, 0x05, 0x57, 0xbe, 0x86, 0xef, 0x53, 0xbe, 0xa6, 0x1f,
    0x50, 0xbe, 0xff, 0x7f, 0x4e, 0xbe, 0x4a, 0x39, 0x4b, 0xbe,
    0xdf, 0xf1, 0x47, 0xbe, 0x94, 0x27, 0x45, 0xbe, 0x12, 0x03,
    0x42, 0xbe, 0xab, 0x7c, 0x3e, 0xbe, 0x9b, 0xe4, 0x3b, 0xbe,
    0x64, 0x95, 0x39, 0xbe, 0x0b, 0xf1, 0x35, 0xbe, 0xde, 0x0f,
    0x34, 0xbe, 0x6e, 0x4b, 0x31, 0xbe, 0xec, 0x5a, 0x2e, 0xbe,
    0xe5, 0x88, 0x2a, 0xbe, 0x33, 0xb4, 0x27, 0xbe, 0x06, 0xe6,
    0x24, 0xbe, 0x5b, 0x3c, 0x21, 0xbe, 0xf7, 0xf6, 0x1e, 0xbe,
    0x4c, 0x02, 0x1c, 0xbe, 0x9b, 0x8f, 0x18, 0xbe, 0x42, 0xe0,
    0x15, 0xbe, 0x00, 0xda, 0x12, 0xbe, 0x2b, 0x0b, 0x10, 0xbe,
    0xc9, 0xa5, 0x0d, 0xbe, 0xb7, 0xef, 0x0a, 0xbe, 0xbb, 0xb7,
    0x07, 0xbe, 0x4c, 0x32, 0x04, 0xbe, 0x28, 0xd7, 0x00, 0xbe,
    0x85, 0xcc, 0xfb, 0xbd, 0xf7, 0x59, 0xf6, 0xbd, 0x6b, 0x07,
    0xf2, 0xbd, 0x05, 0xee, 0xeb, 0xbd, 0x38, 0x97, 0xe5, 0xbd,
    0x74, 0x65, 0xe0, 0xbd, 0x6f, 0x26, 0xda, 0xbd, 0x72, 0x84,
    0xd4, 0xbd, 0xea, 0x27, 0xce, 0xbd, 0x3b, 0xd8, 0xc8, 0xbd,
    0x3f, 0x87, 0xc2, 0xbd, 0x5b, 0x38, 0xbc, 0xbd, 0x53, 0x9b,
    0xb6, 0xbd, 0x9b, 0x25, 0xb1, 0xbd, 0x81, 0x4e, 0xab, 0xbd,
    0xb6, 0x7a, 0xa5, 0xbd, 0x25, 0xd5, 0x9f, 0xbd, 0x78, 0xfa,
    0x99, 0xbd, 0x1b, 0xac, 0x93, 0xbd, 0x3d, 0x42, 0x8e, 0xbd,
    0xed, 0x2c, 0x88, 0xbd, 0x62, 0x93, 0x81, 0xbd, 0xbc, 0x6d,
    0x76, 0xbd, 0xfa, 0xf6, 0x6d, 0xbd, 0x06, 0x84, 0x61, 0xbd,
    0x37, 0xb3, 0x55, 0xbd, 0x20, 0x19, 0x4a, 0xbd, 0xa8, 0xff,
    0x3d, 0xbd, 0x3f, 0xa5, 0x33, 0xbd, 0x3a, 0x55, 0x2a, 0xbd,
    0xe4, 0xee, 0x1e, 0xbd, 0x28, 0xf8, 0x11, 0xbd, 0x12, 0x6e,
    0x09, 0xbd, 0xdb, 0xf6, 0xf6, 0xbc, 0x71, 0x77, 0xdc, 0xbc,
    0x9b, 0xf7, 0xc5, 0xbc, 0x8a, 0x16, 0xab, 0xbc, 0x75, 0xd2,
    0x92, 0xbc, 0xf9, 0xe6, 0x72, 0xbc, 0xd2, 0x67, 0x45, 0xbc,
    0xa6, 0x4b, 0x1f, 0xbc, 0x50, 0x79, 0xe7, 0xbb, 0xbf, 0xb5,
    0x76, 0xbb, 0xe7, 0xb7, 0x26, 0xba, 0xa9, 0x1e, 0x19, 0x3b,
    0x46, 0xa7, 0x90, 0x3b, 0x13, 0x3b, 0xff, 0x3b, 0x56, 0x02,
    0x34, 0x3c, 0xa4, 0x60, 0x67, 0x3c, 0xb1, 0x64, 0x8d, 0x3c,
    0xbd, 0x71, 0xa0, 0x3c, 0x5c, 0x00, 0xb5, 0x3c, 0xbf, 0x96,
    0xcc, 0x3c, 0xd7, 0x91, 0xe8, 0x3c, 0x73, 0xeb, 0xfc, 0x3c,
    0x5b, 0xa4, 0x0a, 0x3d, 0x8b, 0x3a, 0x17, 0x3d, 0x7a, 0xc9,
    0x20, 0x3d, 0xce, 0x36, 0x2c, 0x3d, 0xf9, 0x38, 0x3a, 0x3d,
    0x36, 0xc2, 0x46, 0x3d, 0x67, 0x04, 0x52, 0x3d, 0x8c, 0x6b,
    0x5b, 0x3d, 0xcd, 0x3a, 0x68, 0x3d, 0x9b, 0x0d, 0x75, 0x3d,
    0x69, 0x51, 0x80, 0x3d, 0x68, 0x13, 0x86, 0x3d, 0xc8, 0xdb,
    0x8b, 0x3d, 0xa0, 0x76, 0x91, 0x3d, 0xdd, 0xcf, 0x96, 0x3d,
    0x9d, 0x2d, 0x9e, 0x3d, 0x54, 0x4c, 0xa3, 0x3d, 0xd8, 0xe7,
    0xa8, 0x3d, 0x70, 0x27, 0xaf, 0x3d, 0xa9, 0x7f, 0xb5, 0x3d,
    0x6b, 0x13, 0xba, 0x3d, 0xe9, 0x2c, 0xc0, 0x3d, 0x13, 0x88,
    0xc5, 0x3d, 0xb3, 0x97, 0xcb, 0x3d, 0xeb, 0x80, 0xd1, 0x3d,
    0x6b, 0x48, 0xd7, 0x3d, 0x1f, 0xc9, 0xdd, 0x3d, 0xbb, 0xbc,
    0xe3, 0x3d, 0xfd, 0x70, 0xe9, 0x3d, 0x96, 0x4f, 0xf0, 0x3d,
    0xf3, 0x4e, 0xf6, 0x3d, 0x15, 0x8d, 0xfa, 0x3d, 0xb2, 0xd7,
    0xff, 0x3d, 0x38, 0x16, 0x03, 0x3e, 0x1b, 0x1d, 0x06, 0x3e,
    0x4b, 0xad, 0x09, 0x3e, 0x25, 0x4c, 0x0c, 0x3e, 0x5c, 0xda,
    0x0e, 0x3e, 0x45, 0x29, 0x12, 0x3e, 0x43, 0x04, 0x15, 0x3e,
    0xed, 0xbe, 0x17, 0x3e, 0xf1, 0xf4, 0x19, 0x3e, 0xee, 0xb8,
    0x1d, 0x3e, 0x9b, 0x9d, 0x20, 0x3e, 0x6a, 0xc5, 0x23, 0x3e,
    0x4e, 0x15, 0x27, 0x3e, 0x67, 0x3c, 0x29, 0x3e, 0x7f, 0xd3,
    0x2c, 0x3e, 0x1a, 0xd8, 0x2e, 0x3e, 0x03, 0x1f, 0x31, 0x3e,
    0xe4, 0xda, 0x34, 0x3e, 0x19, 0xf6, 0x38, 0x3e, 0xb6, 0x7b,
    0x3c, 0x3e, 0xc6, 0xbb, 0x3f, 0x3e, 0xb8, 0xc8, 0x41, 0x3e,
    0x11, 0xf0, 0x43, 0x3e, 0x02, 0xf2, 0x46, 0x3e, 0xf6, 0x81,
    0x49, 0x3e, 0xca, 0xaf, 0x4c, 0x3e, 0x19, 0x62, 0x4f, 0x3e,
    0xc1, 0x22, 0x52, 0x3e, 0x2a, 0xef, 0x54, 0x3e, 0xcc, 0x29,
    0x59, 0x3e, 0x9c, 0xb6, 0x5b, 0x3e, 0xc8, 0x00, 0x5f, 0x3e,
    0x3e, 0x77, 0x62, 0x3e, 0xd9, 0x57, 0x63, 0x3e, 0x8d, 0x46,
    0x66, 0x3e, 0xf4, 0x34, 0x6a, 0x3e, 0xb4, 0x0f, 0x6d, 0x3e,
    0x81, 0x0b, 0x70, 0x3e, 0x4c, 0xdd, 0x72, 0x3e, 0x26, 0xed,
    0x75, 0x3e, 0xa5, 0xbb, 0x79, 0x3e, 0x54, 0x2d, 0x7d, 0x3e,
    0xe1, 0xe3, 0x7e, 0x3e, 0xef, 0xba, 0x80, 0x3e, 0xc1, 0x31,
    0x82, 0x3e, 0xb4, 0xe0, 0x83, 0x3e, 0x32, 0x3a, 0x85, 0x3e,
    0xcc, 0xb1, 0x86, 0x3e, 0x67, 0x29, 0x88, 0x3e, 0x23, 0x2a,
    0x8a, 0x3e, 0x9d, 0x18, 0x8b, 0x3e, 0x83, 0x8d, 0x8c, 0x3e,
    0x49, 0xe3, 0x8d, 0x3e, 0xb6, 0xde, 0x8f, 0x3e, 0xbe, 0x65,
    0x91, 0x3e, 0x7c, 0x60, 0x92, 0x3e, 0x44, 0x65, 0x93, 0x3e,
    0xd9, 0x5d, 0x95, 0x3e, 0x15, 0x52, 0x97, 0x3e, 0x2a, 0x0b,
    0x98, 0x3e, 0xa9, 0xc4, 0x99, 0x3e, 0x4d, 0x4e, 0x9b, 0x3e,
    0x77, 0x6d, 0x9c, 0x3e, 0x79, 0x2b, 0x9e, 0x3e, 0x14, 0xa3,
    0x9f, 0x3e, 0x78, 0x72, 0xa1, 0x3e, 0x4a, 0x92, 0xa2, 0x3e,
    0xe5, 0x09, 0xa4, 0x3e, 0x35, 0x53, 0xa5, 0x3e, 0x1a, 0xf9,
    0xa6, 0x3e, 0x14, 0xaa, 0xa8, 0x3e, 0x50, 0xe8, 0xa9, 0x3e,
    0xeb, 0x5f, 0xab, 0x3e, 0x0c, 0x2d, 0xad, 0x3e, 0x20, 0x4f,
    0xae, 0x3e, 0xbb, 0xc6, 0xaf, 0x3e, 0x56, 0x3e, 0xb1, 0x3e,
    0xf1, 0xb5, 0xb2, 0x3e, 0x8b, 0x2d, 0xb4, 0x3e, 0x26, 0xa5,
    0xb5, 0x3e, 0xc1, 0x1c, 0xb7, 0x3e, 0x52, 0x9d, 0xaa, 0xbe,
    0x46, 0x82, 0x6b, 0xbc, 0x43, 0xd5, 0x7a, 0x68, 0x3d, 0x92,
    0x8c, 0xb9, 0x70, 0xab, 0x85, 0x28, 0x6a, 0xa5, 0x98, 0x8b,
    0x9f, 0x86, 0x78, 0xc0, 0x4f, 0x5e, 0xa7, 0xc0, 0x45, 0x93,
    0x5b, 0x93, 0x3a, 0x93, 0x65, 0x6b, 0x48, 0xb8, 0x5c, 0x5e,
    0x49, 0xb7, 0x7f, 0x78, 0xaf, 0xdc, 0x70, 0x6c, 0x98, 0x55,
    0x63, 0xa0, 0x7d, 0x98, 0xa1, 0x8e, 0x67, 0x72, 0x74, 0x9c,
    0x6d, 0x6f, 0x42, 0x94, 0x82, 0x67, 0x8b, 0x8c, 0x57, 0x44,
    0x96, 0x81, 0x62, 0x88, 0x71, 0xb3, 0x30, 0xa4, 0x4e, 0x93,
    0x74, 0x51, 0x6a, 0x9a, 0x92, 0x6f, 0x8a, 0x88, 0x0a, 0x81,
    0x5b, 0x9d, 0x89, 0xa8, 0xc0, 0x68, 0x62, 0xa7, 0x6d, 0xbd,
    0x5b, 0x98, 0x78, 0x9e, 0x5b, 0x72, 0xa6, 0x35, 0x98, 0x5a,
    0x65, 0xa0, 0x4d, 0xae, 0x77, 0x82, 0x67, 0xb5, 0x8b, 0xad,
    0x99, 0x62, 0x72, 0x99, 0x6c, 0x76, 0xd8, 0x84, 0x99, 0xa7,
    0xa5, 0x46, 0x8b, 0x6b, 0x54, 0xa3, 0x94, 0x5a, 0xb6, 0xaa,
    0x8e, 0xa2, 0x8f, 0xc9, 0x7e, 0x90, 0x99, 0x67, 0x24, 0x91,
    0x99, 0x82, 0x82, 0x64, 0xb8, 0xcb, 0x91, 0x8e, 0x88, 0x4d,
    0xb1, 0x69, 0x77, 0xc7, 0xb0, 0x7b, 0x57, 0xa0, 0x87, 0x7a,
    0x8d, 0x76, 0x06, 0x73, 0x83, 0x9b, 0x8f, 0x54, 0x59, 0x87,
    0x51, 0x88, 0x73, 0xa1, 0x96, 0xbb, 0xaa, 0x6a, 0xaa, 0x98,
    0x99, 0x67, 0x87, 0x5e, 0x52, 0x5e, 0x62, 0x81, 0x92, 0x78,
    0x8d, 0x3f, 0x71, 0x75, 0x44, 0x74, 0x51, 0x55, 0x63, 0xa0,
    0x66, 0xac, 0xb7, 0xab, 0x52, 0x2f, 0x99, 0x57, 0x8c, 0x3f,
    0xff, 0x4c, 0xc2, 0x8b, 0xe0, 0x7b, 0x82, 0x3e, 0x79, 0x57,
    0x52, 0xd3, 0xaf, 0x69, 0x7e, 0x78, 0x81, 0x68, 0x60, 0x3e,
    0x96, 0x9d, 0x69, 0x5b, 0xbd, 0xa4, 0x9d, 0x60, 0xa8, 0xba,
    0xa9, 0x8c, 0xce, 0x6f, 0xbd, 0x95, 0xb1, 0x87, 0x74, 0x7e,
    0x8b, 0x46, 0x77, 0x96, 0x73, 0xa6, 0x63, 0x58, 0x9a, 0x5b,
    0x7b, 0x6e, 0xaa, 0xb5, 0x80, 0xa7, 0xc8, 0x4d, 0xb8, 0x92,
    0x69, 0x43, 0x67, 0x4c, 0xbc, 0x7c, 0x6b, 0x6a, 0xa3, 0x88,
    0x5f, 0x78, 0xe3, 0x6f, 0xaa, 0x4a, 0x83, 0xf3, 0x3a, 0x98,
    0x5c, 0x77, 0xb8, 0xa7, 0xd2, 0xaa, 0x77, 0x7f, 0x9e, 0x43,
    0x60, 0x8f, 0x84, 0x4a, 0xae, 0x71, 0x91, 0xb1, 0xbe, 0x81,
    0xa1, 0x4e, 0x83, 0xab, 0x6f, 0x68, 0x86, 0x86, 0xbc, 0x2b,
    0x7c, 0x90, 0x98, 0x1d, 0xa1, 0x89, 0x4e, 0x79, 0x8b, 0x9c,
    0x71, 0x98, 0x5f, 0x83, 0x95, 0xa9, 0x43, 0x75, 0x81, 0x9b,
    0xaf, 0x83, 0x8a, 0x86, 0x93, 0x38, 0x81, 0x83, 0xa3, 0x45,
    0x5b, 0x72, 0x9d, 0x76, 0xe5, 0x72, 0x66, 0x69, 0xaf, 0x8d,
    0x48, 0x70, 0x96, 0x21, 0xab, 0xb9, 0x9c, 0xab, 0x6e, 0x52,
    0x7b, 0x67, 0x90, 0x89, 0x82, 0xcd, 0x65, 0x71, 0xcb, 0x6e,
    0x79, 0x47, 0x8b, 0x78, 0x59, 0xbb, 0xae, 0x65, 0x8f, 0x91,
    0xab, 0x7b, 0x81, 0x6d, 0x74, 0x63, 0xad, 0x7a, 0x5b, 0xae,
    0xac, 0x8a, 0xa6, 0x90, 0x4c, 0x94, 0x7d, 0xa8, 0xbb, 0x6c,
    0xc8, 0x96, 0xe4, 0x7d, 0x79, 0x6b, 0x7a, 0x97, 0xa0, 0x91,
    0xad, 0x75, 0x7a, 0x58, 0x77, 0x6f, 0x9e, 0x55, 0xa3, 0x58,
    0x90, 0x89, 0x51, 0x79, 0x93, 0x64, 0x7d, 0xa9, 0x8f, 0x9d,
    0x8b, 0x8c, 0x99, 0x98, 0x6c, 0x7c, 0xb0, 0x5e, 0x71, 0x98,
    0x7e, 0x7d, 0xc5, 0x4d, 0xb6, 0xab, 0x86, 0x79, 0x74, 0x70,
    0x7c, 0x61, 0x8f, 0xbd, 0x95, 0x91, 0x6d, 0x48, 0xbb, 0x96,
    0x66, 0x82, 0xb7, 0x9d, 0xa4, 0xa7, 0x84, 0xc9, 0x78, 0x8a,
    0xc1, 0x7a, 0xa7, 0x5f, 0xa2, 0x4c, 0x86, 0xa0, 0x95, 0x6f,
    0x77, 0xb7, 0x42, 0x82, 0x72, 0x8b, 0xa5, 0x85, 0xa6, 0x41,
    0xac, 0x7f, 0x89, 0xc3, 0x58, 0x5a, 0x66, 0xb9, 0x92, 0x9c,
    0xab, 0x99, 0x89, 0xae, 0x96, 0x46, 0x94, 0xb2, 0x67, 0x8a,
    0xab, 0x4a, 0x9d, 0x74, 0x6e, 0xa2, 0x8d, 0x73, 0x80, 0xd5,
    0x57, 0x87, 0x92, 0xb8, 0xe3, 0x90, 0xa1, 0x6d, 0x67, 0x57,
    0xad, 0x69, 0x4f, 0x89, 0xbf, 0xa2, 0x60, 0x5e, 0x46, 0x6c,
    0x72, 0x67, 0x5d, 0x70, 0x78, 0x5c, 0x65, 0x60, 0x9f, 0x96,
    0x74, 0x66, 0x91, 0x90, 0x98, 0x89, 0x74, 0x66, 0x53, 0x71,
    0xb5, 0x70, 0x64, 0x8a, 0x93, 0x6b, 0x35, 0x6e, 0x6e, 0x74,
    0x55, 0x7f, 0x8b, 0x97, 0xa6, 0x7d, 0x60, 0x92, 0x5d, 0x43,
    0x7b, 0xa3, 0x75, 0x8c, 0xd6, 0x7b, 0x88, 0x96, 0x84, 0x67,
    0x9d, 0xa2, 0x8b, 0x53, 0x84, 0x91, 0x82, 0x34, 0x8f, 0x52,
    0x7c, 0x54, 0x67, 0xa3, 0x71, 0x9b, 0xbd, 0xa8, 0x9d, 0x80,
    0x52, 0x9a, 0xd9, 0xba, 0x81, 0x96, 0xb7, 0x60, 0x8b, 0x9e,
    0xa6, 0x6c, 0x5a, 0x8d, 0x61, 0x65, 0x64, 0x9d, 0x59, 0x9c,
    0xb0, 0x7c, 0x63, 0x86, 0x7e, 0xa7, 0x30, 0xb5, 0x76, 0x9e,
    0x90, 0x9f, 0x66, 0x7d, 0x90, 0x7b, 0x51, 0x83, 0x87, 0x74,
    0xbc, 0xd7, 0x7c, 0x70, 0xc7, 0x8d, 0x6c, 0x66, 0x64, 0xa5,
    0x92, 0x4b, 0x77, 0x6b, 0x6f, 0x54, 0x89, 0x9f, 0x4a, 0x9a,
    0x9b, 0x82, 0xa1, 0x9b, 0x8b, 0x8f, 0x7b, 0xa3, 0x6a, 0x70,
    0x8b, 0x73, 0xa7, 0x58, 0x84, 0x7e, 0x98, 0x55, 0x3f, 0x5f,
    0x48, 0x7a, 0x6c, 0x99, 0x63, 0x99, 0x64, 0x59, 0xa1, 0x96,
    0x90, 0xa5, 0x9d, 0xbd, 0x69, 0xb9, 0x47, 0xc0, 0x97, 0x75,
    0x5e, 0x89, 0x64, 0x81, 0x6a, 0x85, 0x89, 0x99, 0x89, 0x48,
    0x76, 0x85, 0x9e, 0x64, 0x6c, 0x83, 0x7d, 0x8e, 0x61, 0x98,
    0x60, 0x5f, 0x59, 0x54, 0x8d, 0x5f, 0xce, 0x9a, 0x60, 0x99,
    0x46, 0x9c, 0x4a, 0x96, 0x9c, 0x90, 0x64, 0x59, 0x98, 0x71,
    0x89, 0x40, 0x7d, 0xaf, 0xc3, 0xb1, 0x66, 0x61, 0x91, 0x50,
    0xa5, 0xa7, 0x60, 0xc8, 0x65, 0x87, 0xa2, 0x62, 0x95, 0x9f,
    0x7b, 0x7b, 0x90, 0xa9, 0x61, 0xa2, 0x3c, 0x97, 0x7d, 0x6f,
    0xa6, 0x84, 0x84, 0x77, 0x7b, 0xa7, 0x59, 0x51, 0x6c, 0x90,
    0x7c, 0x95, 0x95, 0x8f, 0xa3, 0xcf, 0x55, 0x47, 0xa0, 0x76,
    0x63, 0x6c, 0x93, 0xb4, 0x6e, 0x90, 0xa7, 0x44, 0x57, 0x97,
    0x70, 0x9c, 0x7b, 0x8b, 0xc3, 0x9a, 0x9c, 0x98, 0x8d, 0x62,
    0x6a, 0x41, 0x6f, 0xa0, 0x5e, 0x52, 0xaf, 0x92, 0x8a, 0x9c,
    0x96, 0x7e, 0x50, 0x54, 0x81, 0x56, 0x7c, 0xb3, 0x7b, 0xc5,
    0x9b, 0x6b, 0x8f, 0x3b, 0x86, 0x75, 0x72, 0x52, 0xa6, 0x6a,
    0xa3, 0xa6, 0xa4, 0x85, 0xa5, 0x44, 0x88, 0x96, 0x91, 0xc4,
    0x99, 0x98, 0x7b, 0x91, 0x6f, 0x68, 0x97, 0x40, 0xc1, 0x5e,
    0x56, 0x91, 0xc3, 0x89, 0xa7, 0x50, 0xb6, 0xcb, 0x5f, 0x71,
    0xba, 0x2d, 0xbc, 0x7d, 0x82, 0xa4, 0x85, 0x6f, 0x49, 0x39,
    0x83, 0x78, 0x76, 0xc6, 0x66, 0x79, 0x5b, 0x5d, 0x45, 0x82,
    0xa3, 0x8f, 0xb1, 0x80, 0xb9, 0x98, 0xb7, 0x82, 0x91, 0xaa,
    0x7c, 0xa0, 0x9b, 0xa0, 0x34, 0x85, 0x80, 0x2e, 0x68, 0x7d,
    0xed, 0x7e, 0x85, 0x96, 0x9f, 0xf5, 0x52, 0x44, 0x68, 0x91,
    0x56, 0xa2, 0xb5, 0x4d, 0xb0, 0x6f, 0x7b, 0x87, 0x4e, 0xb3,
    0x94, 0x32, 0x93, 0x72, 0xd0, 0x6b, 0x8c, 0x56, 0x87, 0x47,
    0x70, 0xa0, 0x56, 0x9c, 0x7b, 0x91, 0xd3, 0x72, 0xba, 0xc0,
    0x63, 0x6e, 0x6c, 0x61, 0x63, 0x72, 0x8b, 0xa9, 0x8c, 0x62,
    0x2f, 0x57, 0x8b, 0xa1, 0x81, 0xaa, 0x5a, 0xa9, 0x7e, 0x49,
    0xa2, 0xb8, 0x6c, 0x8d, 0x9e, 0x75, 0x91, 0x2f, 0x9a, 0x88,
    0x69, 0xbd, 0xad, 0x3f, 0x60, 0x87, 0x9d, 0x94, 0x47, 0x65,
    0x6c, 0x43, 0xb0, 0x79, 0xb1, 0x70, 0x97, 0x5f, 0x5b, 0x90,
    0x90, 0x47, 0x67, 0x8c, 0x70, 0xa7, 0xf0, 0xbb, 0x85, 0x4f,
    0x81, 0xa0, 0x69, 0x82, 0xae, 0x38, 0xa1, 0x74, 0x62, 0x36,
    0x60, 0x8e, 0x4e, 0x4d, 0x92, 0xb2, 0x73, 0x8a, 0xc0, 0x92,
    0xbe, 0xc0, 0x79, 0x7f, 0x66, 0xa7, 0x7a, 0x92, 0x93, 0x4b,
    0x90, 0xa0, 0x9c, 0x9b, 0x96, 0x72, 0xa1, 0x9e, 0x96, 0x56,
    0xbf, 0x6c, 0x5d, 0x75, 0xa9, 0x7e, 0x8b, 0x72, 0x95, 0x7d,
    0x36, 0x67, 0x81, 0x73, 0x84, 0xbd, 0xb6, 0x7c, 0xa0, 0x52,
    0x9c, 0x50, 0x4c, 0x4d, 0xb3, 0x93, 0x57, 0x7d, 0xb0, 0x91,
    0xbb, 0x51, 0xc2, 0xa7, 0x6c, 0xa9, 0xa9, 0x62, 0xa8, 0x6c,
    0xc8, 0x74, 0x67, 0x66, 0x6c, 0x4a, 0x6e, 0x7c, 0x97, 0x78,
    0xab, 0x88, 0x96, 0x8e, 0x5c, 0xb8, 0x57, 0xb0, 0x88, 0x97,
    0xb5, 0x92, 0xce, 0x85, 0x6c, 0x71, 0x68, 0x56, 0x86, 0xb3,
    0x56, 0x70, 0x84, 0x63, 0x5b, 0x75, 0xe4, 0x40, 0xca, 0x6d,
    0x6f, 0xe6, 0x8a, 0x7d, 0x9d, 0xb4, 0x76, 0x91, 0x97, 0x61,
    0xba, 0x75, 0x79, 0x68, 0x63, 0x92, 0x70, 0x44, 0xb4, 0x56,
    0xcb, 0x7f, 0xc1, 0x7a, 0x76, 0xa5, 0x7b, 0xc1, 0x40, 0x80,
    0x81, 0x60, 0xce, 0x50, 0xbd, 0x8d, 0x6e, 0x30, 0x6d, 0x75,
    0x6f, 0x66, 0x87, 0xab, 0x74, 0x97, 0x55, 0x9c, 0xab, 0x93,
    0x72, 0x53, 0x61, 0x64, 0x8b, 0x70, 0xa4, 0x9f, 0x5d, 0x2e,
    0xb3, 0x50, 0x8c, 0x4b, 0x5f, 0x89, 0x83, 0xa4, 0xbd, 0x81,
    0x54, 0x43, 0xb7, 0x7e, 0x80, 0x66, 0x71, 0x73, 0xa5, 0x8c,
    0x9f, 0x6a, 0x5d, 0x6a, 0x7a, 0x9f, 0xa5, 0x69, 0xae, 0xc1,
    0x53, 0x5a, 0xec, 0x5b, 0x62, 0x70, 0x54, 0x6d, 0x7f, 0x78,
    0x97, 0x61, 0x88, 0x6e, 0xab, 0x4b, 0x70, 0xa3, 0x83, 0x41,
    0x61, 0x88, 0x90, 0xb8, 0xba, 0xb0, 0xa5, 0x5c, 0x86, 0x92,
    0x97, 0x73, 0x9d, 0x92, 0xbd, 0x7e, 0xae, 0x93, 0x82, 0x9d,
    0x6b, 0x66, 0x87, 0x95, 0x59, 0x64, 0xca, 0x8d, 0x63, 0x3f,
    0x85, 0x75, 0x93, 0x82, 0xc3, 0x8f, 0x69, 0x81, 0x8b, 0x89,
    0x8f, 0xb9, 0x61, 0x6f, 0x7c, 0x87, 0x80, 0x7f, 0x59, 0x5b,
    0x81, 0xa6, 0x45, 0x9c, 0x9b, 0x77, 0x90, 0x71, 0xb2, 0xae,
    0x7d, 0x73, 0x70, 0x50, 0x93, 0x7b, 0xb9, 0x94, 0x86, 0x67,
    0x98, 0x56, 0xc1, 0x9a, 0x74, 0x83, 0x9b, 0x5e, 0x88, 0xa2,
    0x81, 0x7d, 0x96, 0x74, 0x9a, 0x8c, 0x79, 0x5b, 0xb3, 0x4a,
    0x91, 0x51, 0x6e, 0x58, 0xb8, 0xac, 0x34, 0x73, 0x8b, 0x85,
    0x7b, 0x79, 0xaf, 0x8a, 0xac, 0x54, 0xc0, 0xc6, 0x6a, 0x9c,
    0x90, 0x90, 0xbc, 0x88, 0xc8, 0x5a, 0x8b, 0xbe, 0x80, 0x71,
    0x88, 0xce, 0x79, 0x76, 0xa5, 0x57, 0xcc, 0x76, 0x80, 0x3c,
    0x7f, 0x9b, 0x7f, 0xc0, 0x8e, 0x55, 0xb8, 0x8d, 0x7c, 0x82,
    0x9b, 0xae, 0xa6, 0x40, 0xc1, 0x60, 0x5e, 0xc6, 0xc4, 0xb7,
    0x5e, 0x62, 0x3b, 0x67, 0x64, 0x7c, 0x46, 0x87, 0xac, 0xb1,
    0xa6, 0x70, 0xbf, 0xad, 0x87, 0x3b, 0x7f, 0x58, 0x70, 0x95,
    0x71, 0xb0, 0x8d, 0x69, 0xcc, 0x69, 0x76, 0x4f, 0xa7, 0x5d,
    0x46, 0x70, 0x5c, 0x80, 0x58, 0xab, 0x66, 0xab, 0x8f, 0x57,
    0x69, 0x7c, 0x6c, 0x75, 0x96, 0xa9, 0x65, 0x61, 0xcd, 0x61,
    0x6a, 0x81, 0x5c, 0x7f, 0x76, 0xa6, 0x9c, 0x87, 0x9b, 0x81,
    0x74, 0x2a, 0x6e, 0xa9, 0x85, 0x79, 0x76, 0x94, 0x7a, 0x7d,
    0xb0, 0x85, 0xd8, 0x8b, 0x61, 0x72, 0xca, 0x6a, 0x9d, 0x73,
    0xa4, 0x59, 0x87, 0xb1, 0x87, 0x5c, 0x5a, 0x96, 0xaa, 0xa1,
    0x5c, 0x72, 0xa6, 0xb4, 0x77, 0x4e, 0xb7, 0x6d, 0x96, 0x73,
    0xe7, 0x7c, 0x50, 0x96, 0xb1, 0x36, 0x75, 0x98, 0xa2, 0x53,
    0x9e, 0x99, 0x82, 0x55, 0x82, 0x55, 0x8d, 0x7b, 0x5e, 0x7d,
    0x9a, 0x8e, 0xa6, 0x57, 0xaf, 0xbe, 0x67, 0xa7, 0x95, 0x71,
    0xb2, 0x99, 0xb1, 0x72, 0x85, 0x51, 0x51, 0x50, 0xb5, 0x88,
    0x69, 0x72, 0x9a, 0x84, 0x81, 0x78, 0x6b, 0x8d, 0x5b, 0x73,
    0x85, 0x96, 0xac, 0x93, 0xa0, 0x5a, 0x75, 0x8e, 0x6f, 0x8b,
    0xab, 0xc0, 0x6c, 0x96, 0x60, 0x47, 0x59, 0x57, 0xcb, 0x5f,
    0x85, 0x6f, 0x62, 0xea, 0x5c, 0x3f, 0x8b, 0x9c, 0x80, 0x6d,
    0xa0, 0x53, 0x86, 0xa6, 0xb2, 0x60, 0x98, 0xae, 0x95, 0x45,
    0x84, 0x7f, 0xad, 0x98, 0x7f, 0x7f, 0x97, 0x7d, 0x7f, 0xc8,
    0x7f, 0x6c, 0x86, 0x5e, 0xa8, 0x49, 0xaf, 0x9a, 0x91, 0x67,
    0x8b, 0x95, 0x76, 0x95, 0x79, 0xaf, 0x71, 0x86, 0x3f, 0x6d,
    0xb9, 0x53, 0x57, 0x6f, 0x6e, 0x9a, 0x6f, 0x53, 0xb7, 0xad,
    0x87, 0x59, 0x84, 0x69, 0xa8, 0x76, 0x87, 0xa8, 0x80, 0x86,
    0xc0, 0x40, 0x74, 0x4a, 0xb6, 0x57, 0x67, 0x8b, 0xa4, 0x63,
    0xa6, 0x95, 0x90, 0x96, 0x6d, 0x5b, 0x92, 0xa6, 0x97, 0x6d,
    0xb5, 0xb2, 0x4d, 0x87, 0x95, 0x86, 0x96, 0x50, 0x3d, 0x8a,
    0x61, 0x77, 0xa1, 0x61, 0xac, 0x59, 0xab, 0x33, 0x6c, 0x94,
    0x74, 0x2a, 0xb8, 0x70, 0x85, 0x95, 0xb8, 0xad, 0xa7, 0x81,
    0x48, 0x7f, 0x7c, 0x8f, 0xa5, 0x93, 0x8b, 0x8d, 0xb5, 0xb3,
    0x79, 0x87, 0x72, 0x59, 0x6c, 0x82, 0x6a, 0x8e, 0x47, 0x99,
    0x81, 0x9d, 0x5c, 0xbc, 0x86, 0x77, 0x41, 0xb0, 0x79, 0x81,
    0x53, 0xc7, 0x77, 0x75, 0x76, 0x96, 0x7b, 0x51, 0x70, 0x96,
    0x72, 0xb5, 0x6d, 0x69, 0x7f, 0xae, 0x72, 0x55, 0x63, 0xc1,
    0x96, 0x34, 0x5e, 0x81, 0x76, 0x6d, 0x7e, 0x50, 0x4e, 0x71,
    0x80, 0xa9, 0xa6, 0x7f, 0x62, 0x98, 0x8b, 0x84, 0x8d, 0x99,
    0x61, 0x6d, 0xa9, 0x7f, 0x8b, 0x46, 0x63, 0x96, 0x4a, 0x65,
    0x30, 0x9f, 0x9d, 0xa0, 0xa5, 0x51, 0x7d, 0x60, 0xcd, 0x9b,
    0x9f, 0x67, 0xb0, 0xc1, 0x67, 0x95, 0x68, 0xbf, 0x75, 0x1a,
    0xb4, 0xa9, 0x81, 0x72, 0x90, 0xa5, 0x43, 0x78, 0x82, 0x88,
    0x92, 0xa6, 0xc8, 0x65, 0x82, 0xa3, 0x57, 0x95, 0x0f, 0xad,
    0x64, 0x7e, 0x57, 0x7d, 0xb7, 0x68, 0xa1, 0x96, 0x41, 0x7a,
    0x6a, 0xa4, 0x3b, 0x4d, 0x89, 0xc7, 0x77, 0x9e, 0x64, 0x92,
    0x90, 0x84, 0xa4, 0x99, 0xa5, 0x7e, 0x49, 0xae, 0x85, 0x7f,
    0x8a, 0x70, 0x66, 0xc7, 0x60, 0x4c, 0xa1, 0xa7, 0x79, 0x7a,
    0x8c, 0x66, 0x89, 0xa1, 0x70, 0x83, 0x00, 0xb2, 0xaa, 0x86,
    0x84, 0x7d, 0x8c, 0xa7, 0x73, 0x79, 0x7c, 0x64, 0xab, 0xbf,
    0x85, 0x89, 0x91, 0x6e, 0xa9, 0x96, 0x86, 0x42, 0x8d, 0xb2,
    0x16, 0x92, 0xa4, 0x88, 0xa9, 0x7a, 0x92, 0x8b, 0x89, 0xda,
    0x76, 0x77, 0x6d, 0xaa, 0xa3, 0x75, 0x87, 0xc1, 0x9a, 0x5a,
    0xb5, 0x32, 0x3f, 0x6c, 0x61, 0x7d, 0xb4, 0x88, 0x5a, 0x6f,
    0x8f, 0x9b, 0x2f, 0x9a, 0x5b, 0x68, 0x66, 0xa3, 0x74, 0xb3,
    0x7e, 0x9c, 0x83, 0xbf, 0x6b, 0x79, 0x78, 0xa8, 0x2f, 0xb8,
    0x68, 0x97, 0x39, 0xc0, 0x80, 0xa4, 0x8f, 0x98, 0xa2, 0x38,
    0x86, 0x85, 0x6c, 0x82, 0x5f, 0x9b, 0x6d, 0xdb, 0x4b, 0x4d,
    0xb1, 0xa7, 0x72, 0xa7, 0x72, 0x96, 0x7f, 0x64, 0x7e, 0x78,
    0x2d, 0x6e, 0x8e, 0x8a, 0x4a, 0xa1, 0xb3, 0x95, 0xae, 0xa2,
    0x97, 0x81, 0xb0, 0x62, 0x64, 0x9b, 0x8c, 0x64, 0x8f, 0x56,
    0x79, 0x4c, 0x6d, 0x72, 0x3e, 0x81, 0x44, 0xce, 0xa7, 0x76,
    0x76, 0x5e, 0x35, 0x62, 0xd2, 0x9a, 0x7d, 0x82, 0x72, 0x9f,
    0x60, 0x7b, 0x5d, 0xb3, 0x56, 0x37, 0x90, 0x94, 0xa9, 0x88,
    0x4d, 0x80, 0x52, 0x74, 0x95, 0x5e, 0x89, 0x9d, 0xba, 0x74,
    0x72, 0xae, 0x79, 0xb1, 0x33, 0x62, 0x75, 0xbf, 0x63, 0x6c,
    0xc0, 0x50, 0xca, 0x86, 0x60, 0x55, 0x56, 0x7e, 0x58, 0xa0,
    0xba, 0x9e, 0xa7, 0x9d, 0x6d, 0x62, 0x7c, 0x6f, 0x94, 0x8a,
    0xbb, 0x79, 0x73, 0x99, 0x92, 0xa5, 0x98, 0x9e, 0x7c, 0x7f,
    0x51, 0x67, 0xac, 0x95, 0x54, 0x9b, 0x84, 0xb1, 0x99, 0x7b,
    0xaf, 0x79, 0x1f, 0xa8, 0x73, 0xba, 0x73, 0x66, 0x68, 0x6d,
    0x99, 0xb3, 0x9c, 0x55, 0x80, 0xad, 0x40, 0xb9, 0xae, 0x62,
    0x73, 0x89, 0x85, 0x67, 0x88, 0x56, 0x3a, 0x8b, 0xa5, 0xac,
    0x70, 0x6e, 0x6a, 0x7e, 0x54, 0xb9, 0x5a, 0x5f, 0x84, 0xd1,
    0xa1, 0x86, 0xc1, 0xcc, 0x94, 0x5d, 0xaf, 0x46, 0x45, 0x8e,
    0x51, 0x9b, 0xb3, 0xa0, 0x5a, 0x86, 0x8e, 0x8a, 0x4b, 0x80,
    0x1e, 0x7c, 0x62, 0x6c, 0x9b, 0x79, 0x63, 0x6c, 0x5d, 0xab,
    0x4a, 0x8c, 0xb9, 0xbd, 0x3a, 0x78, 0x6b, 0x8c, 0x55, 0x8b,
    0x9e, 0xa4, 0x5a, 0xaf, 0x5f, 0x57, 0x8a, 0xa5, 0x57, 0x5a,
    0xa7, 0x73, 0x98, 0xe2, 0x53, 0x9d, 0x81, 0x9e, 0x75, 0xa9,
    0x43, 0xb5, 0x4b, 0x56, 0x6a, 0x7f, 0x6f, 0x8c, 0x50, 0x73,
    0x38, 0x98, 0x71, 0x98, 0x91, 0xc7, 0x56, 0x69, 0x9e, 0x8e,
    0x79, 0x88, 0x68, 0xa6, 0x7d, 0x91, 0x80, 0x5e, 0x87, 0x7a,
    0x3f, 0x8b, 0x52, 0xc7, 0x84, 0x7a, 0x64, 0x9b, 0x6d, 0x6c,
    0xbc, 0x90, 0x75, 0xca, 0x9f, 0x87, 0x2b, 0x96, 0x63, 0x8e,
    0x9f, 0x25, 0xba, 0x94, 0x7f, 0x65, 0x7b, 0x5d, 0x41, 0xaf,
    0x70, 0x8a, 0x8e, 0x7a, 0xa0, 0x8f, 0x6c, 0xa8, 0x7c, 0x71,
    0x31, 0x55, 0x5f, 0x71, 0x50, 0x79, 0xb1, 0x17, 0xcc, 0xa4,
    0x5d, 0x84, 0x29, 0x7b, 0x5a, 0x86, 0x7d, 0xd2, 0x72, 0x86,
    0x9e, 0x73, 0x72, 0x84, 0xb7, 0x7c, 0xc4, 0x7b, 0x88, 0xa0,
    0x9a, 0x92, 0x66, 0x4d, 0x84, 0xa6, 0x8d, 0x9d, 0xba, 0x82,
    0x66, 0xaa, 0x6d, 0xa8, 0x98, 0x6e, 0x8d, 0x49, 0x2a, 0xb4,
    0x87, 0x95, 0x5b, 0x7d, 0x89, 0xae, 0x9f, 0xc2, 0xb8, 0x94,
    0x72, 0x6f, 0x71, 0x9b, 0x97, 0x5d, 0x86, 0x78, 0x7c, 0x55,
    0x8b, 0x80, 0x21, 0x9f, 0xb8, 0xbd, 0x73, 0x51, 0xa2, 0x90,
    0x5f, 0xa4, 0x62, 0x6e, 0x8c, 0xb3, 0x8f, 0x98, 0x80, 0xd1,
    0x84, 0x91, 0xbf, 0x57, 0x62, 0x55, 0x5e, 0x68, 0xbd, 0x7c,
    0x5d, 0x4a, 0x61, 0x7e, 0x48, 0x74, 0x38, 0x62, 0x77, 0x8f,
    0x9d, 0x8b, 0xa7, 0x9f, 0x80, 0x3e, 0xad, 0x8f, 0x6a, 0x76,
    0xca, 0x97, 0xa4, 0x61, 0xc9, 0x70, 0x96, 0x62, 0x92, 0x55,
    0x7c, 0xab, 0x75, 0x84, 0x95, 0xb6, 0x77, 0x71, 0xac, 0x5b,
    0xa7, 0x54, 0x77, 0x8e, 0xa6, 0xb1, 0x84, 0x7c, 0x72, 0xb7,
    0xaf, 0x9a, 0xb4, 0x6d, 0x8c, 0x82, 0xa2, 0x4a, 0x7a, 0x4f,
    0x71, 0x67, 0x9e, 0x7b, 0x4d, 0x7d, 0x92, 0x81, 0x76, 0x7e,
    0x5f, 0x8a, 0x96, 0xc4, 0x98, 0x66, 0xb9, 0x84, 0x86, 0x4e,
    0x70, 0x5e, 0x9f, 0x99, 0x76, 0x90, 0x3d, 0x6a, 0xaf, 0x6d,
    0x5a, 0x3d, 0xa1, 0x52, 0x92, 0x6c, 0x79, 0xe9, 0x8d, 0x7f,
    0x83, 0x9f, 0x91, 0x98, 0x93, 0x8a, 0x84, 0x62, 0x78, 0x78,
    0x75, 0x91, 0xa6, 0x45, 0x9b, 0x7e, 0xac, 0xad, 0xb7, 0x67,
    0xa0, 0x59, 0x52, 0xb2, 0x47, 0xaa, 0xa9, 0x5e, 0xc5, 0x7b,
    0x73, 0xa4, 0xaa, 0x37, 0x62, 0x7f, 0x80, 0x9e, 0xb3, 0xc2,
    0x8c, 0x62, 0x67, 0x86, 0x7e, 0x80, 0x4c, 0x81, 0x4e, 0x60,
    0x97, 0x55, 0xb8, 0x92, 0x6f, 0x61, 0x86, 0x51, 0x87, 0x60,
    0x62, 0x65, 0x89, 0xab, 0xf8, 0x50, 0x85, 0x7f, 0x9f, 0xab,
    0x8d, 0x5f, 0xab, 0x7a, 0x60, 0x9e, 0x8b, 0x59, 0x62, 0x77,
    0x8e, 0xa9, 0x91, 0x78, 0xa3, 0xc2, 0x88, 0x6a, 0xd6, 0x72,
    0x7b, 0x38, 0x7d, 0x9d, 0x61, 0x71, 0x90, 0x5f, 0x53, 0x65,
    0x7f, 0x3c, 0x60, 0x59, 0x7b, 0x4c, 0x9c, 0x77, 0x51, 0x8d,
    0xc6, 0xad, 0x9b, 0xae, 0x5a, 0x9a, 0xaa, 0xac, 0xac, 0x75,
    0xbc, 0x6e, 0xa7, 0x97, 0x7f, 0x73, 0x68, 0x6b, 0x09, 0x44,
    0x0d, 0xbc, 0xe3, 0x64, 0xc7, 0x3d, 0x86, 0x1d, 0x74, 0xbe,
    0x3f, 0xde, 0x5e, 0x3e, 0xda, 0x03, 0x7f, 0x3d, 0x98, 0x47,
    0xae, 0xbc, 0x91, 0x8a, 0xbd, 0x3c, 0x3b, 0xe9, 0x8d, 0x3e,
    0x34, 0x7d, 0xf8, 0xbd, 0xa0, 0xbe, 0xfa, 0xbd, 0xd5, 0x29,
    0xa0, 0x3d, 0x0d, 0x3e, 0xd4, 0x3d, 0x55, 0x45, 0x8c, 0x3d,
    0xc9, 0xd8, 0x80, 0x3e, 0x1b, 0xe8, 0x9d, 0x3e, 0x03, 0x99,
    0xf4, 0xbe, 0x46, 0xc7, 0x39, 0x3f, 0x98, 0x04, 0xca, 0x3e,
    0xba, 0x16, 0xa2, 0x3d, 0x2e, 0x1f, 0x28, 0x3e, 0x83, 0xae,
    0xba, 0x3d, 0xf8, 0x45, 0xad, 0xbe, 0x16, 0x0e, 0xc1, 0xbd,
    0xb8, 0x04, 0x37, 0x3d, 0xd3, 0xce, 0xe5, 0x3e, 0xdf, 0xf4,
    0x14, 0xbe, 0xfc, 0x23, 0x60, 0x3e, 0xde, 0x9c, 0xbc, 0xbe,
    0xe1, 0x68, 0xc9, 0x3e, 0x97, 0x33, 0x56, 0xbe, 0x43, 0x6a,
    0x49, 0xbe, 0xe0, 0x03, 0x20, 0xbf, 0xa3, 0x85, 0x0c, 0x3f,
    0x9e, 0x68, 0xb6, 0x3e, 0x88, 0x58, 0x30, 0x3f, 0xd1, 0x0a,
    0x02, 0xbf, 0x14, 0xf5, 0x73, 0xbd, 0x04, 0xf5, 0x73, 0x3d
  };

  return AI_HANDLE_PTR(s_network_weights);

}

